{
  "version": "1.0",
  "truncation": null,
  "padding": null,
  "added_tokens": [
    {
      "id": 0,
      "content": "[_UNK_]",
      "single_word": false,
      "lstrip": false,
      "rstrip": false,
      "normalized": false,
      "special": true
    },
    {
      "id": 1,
      "content": "[_PAD_]",
      "single_word": false,
      "lstrip": false,
      "rstrip": false,
      "normalized": false,
      "special": true
    },
    {
      "id": 2,
      "content": "[_INIT_]",
      "single_word": false,
      "lstrip": false,
      "rstrip": false,
      "normalized": false,
      "special": true
    },
    {
      "id": 3,
      "content": "[_STOP_]",
      "single_word": false,
      "lstrip": false,
      "rstrip": false,
      "normalized": false,
      "special": true
    },
    {
      "id": 30000,
      "content": "[MASK]",
      "single_word": false,
      "lstrip": false,
      "rstrip": false,
      "normalized": false,
      "special": true
    }
  ],
  "normalizer": null,
  "pre_tokenizer": {
    "type": "ByteLevel",
    "add_prefix_space": false,
    "trim_offsets": true,
    "use_regex": true
  },
  "post_processor": {
    "type": "TemplateProcessing",
    "single": [
      {
        "Sequence": {
          "id": "A",
          "type_id": 0
        }
      }
    ],
    "pair": [
      {
        "Sequence": {
          "id": "A",
          "type_id": 0
        }
      },
      {
        "Sequence": {
          "id": "B",
          "type_id": 1
        }
      }
    ],
    "special_tokens": {}
  },
  "decoder": {
    "type": "ByteLevel",
    "add_prefix_space": true,
    "trim_offsets": true,
    "use_regex": true
  },
  "model": {
    "type": "BPE",
    "dropout": null,
    "unk_token": "[_UNK_]",
    "continuing_subword_prefix": null,
    "end_of_word_suffix": null,
    "fuse_unk": false,
    "byte_fallback": false,
    "ignore_merges": false,
    "vocab": {
      "[_UNK_]": 0,
      "[_PAD_]": 1,
      "[_INIT_]": 2,
      "[_STOP_]": 3,
      "!": 4,
      "\"": 5,
      "#": 6,
      "$": 7,
      "%": 8,
      "&": 9,
      "'": 10,
      "(": 11,
      ")": 12,
      "*": 13,
      "+": 14,
      ",": 15,
      "-": 16,
      ".": 17,
      "/": 18,
      "0": 19,
      "1": 20,
      "2": 21,
      "3": 22,
      "4": 23,
      "5": 24,
      "6": 25,
      "7": 26,
      "8": 27,
      "9": 28,
      ":": 29,
      ";": 30,
      "<": 31,
      "=": 32,
      ">": 33,
      "?": 34,
      "@": 35,
      "A": 36,
      "B": 37,
      "C": 38,
      "D": 39,
      "E": 40,
      "F": 41,
      "G": 42,
      "H": 43,
      "I": 44,
      "J": 45,
      "K": 46,
      "L": 47,
      "M": 48,
      "N": 49,
      "O": 50,
      "P": 51,
      "Q": 52,
      "R": 53,
      "S": 54,
      "T": 55,
      "U": 56,
      "V": 57,
      "W": 58,
      "X": 59,
      "Y": 60,
      "Z": 61,
      "[": 62,
      "\\": 63,
      "]": 64,
      "^": 65,
      "_": 66,
      "`": 67,
      "a": 68,
      "b": 69,
      "c": 70,
      "d": 71,
      "e": 72,
      "f": 73,
      "g": 74,
      "h": 75,
      "i": 76,
      "j": 77,
      "k": 78,
      "l": 79,
      "m": 80,
      "n": 81,
      "o": 82,
      "p": 83,
      "q": 84,
      "r": 85,
      "s": 86,
      "t": 87,
      "u": 88,
      "v": 89,
      "w": 90,
      "x": 91,
      "y": 92,
      "z": 93,
      "|": 94,
      "}": 95,
      "~": 96,
      "¡": 97,
      "¢": 98,
      "£": 99,
      "¤": 100,
      "¥": 101,
      "¦": 102,
      "§": 103,
      "¨": 104,
      "©": 105,
      "ª": 106,
      "«": 107,
      "¬": 108,
      "®": 109,
      "¯": 110,
      "°": 111,
      "±": 112,
      "²": 113,
      "³": 114,
      "´": 115,
      "µ": 116,
      "¶": 117,
      "·": 118,
      "¸": 119,
      "¹": 120,
      "º": 121,
      "»": 122,
      "¼": 123,
      "½": 124,
      "¾": 125,
      "¿": 126,
      "Â": 127,
      "Ã": 128,
      "Ä": 129,
      "Å": 130,
      "Æ": 131,
      "Ç": 132,
      "È": 133,
      "É": 134,
      "Ê": 135,
      "Ë": 136,
      "Ì": 137,
      "Í": 138,
      "Î": 139,
      "Ï": 140,
      "Ð": 141,
      "Ñ": 142,
      "Ò": 143,
      "Ó": 144,
      "Ô": 145,
      "Õ": 146,
      "Ö": 147,
      "×": 148,
      "Ø": 149,
      "Ù": 150,
      "Ú": 151,
      "Û": 152,
      "ß": 153,
      "à": 154,
      "á": 155,
      "â": 156,
      "ã": 157,
      "ä": 158,
      "å": 159,
      "æ": 160,
      "ç": 161,
      "è": 162,
      "é": 163,
      "ê": 164,
      "ë": 165,
      "ì": 166,
      "í": 167,
      "ï": 168,
      "ð": 169,
      "Ċ": 170,
      "Ġ": 171,
      "Ģ": 172,
      "ģ": 173,
      "Ĥ": 174,
      "ĥ": 175,
      "Ħ": 176,
      "ħ": 177,
      "Ĩ": 178,
      "ĩ": 179,
      "Ī": 180,
      "ī": 181,
      "Ĭ": 182,
      "ĭ": 183,
      "Į": 184,
      "į": 185,
      "İ": 186,
      "ı": 187,
      "Ĳ": 188,
      "ĳ": 189,
      "Ĵ": 190,
      "ĵ": 191,
      "Ķ": 192,
      "ķ": 193,
      "ĸ": 194,
      "Ĺ": 195,
      "ĺ": 196,
      "Ļ": 197,
      "ļ": 198,
      "Ľ": 199,
      "ľ": 200,
      "Ŀ": 201,
      "ŀ": 202,
      "Ł": 203,
      "ł": 204,
      "Ń": 205,
      "Ġt": 206,
      "Ġa": 207,
      "in": 208,
      "he": 209,
      "re": 210,
      "on": 211,
      "Ġthe": 212,
      "er": 213,
      "Ġs": 214,
      "Ġw": 215,
      "at": 216,
      "Ġo": 217,
      "nd": 218,
      "Ġc": 219,
      "it": 220,
      "or": 221,
      "es": 222,
      "is": 223,
      "en": 224,
      "ou": 225,
      "Ġf": 226,
      "Ġb": 227,
      "ing": 228,
      "Ġp": 229,
      "ed": 230,
      "an": 231,
      "al": 232,
      "Ġto": 233,
      "Ġm": 234,
      "ar": 235,
      "Ġand": 236,
      "Ġof": 237,
      "Ġin": 238,
      "Ġd": 239,
      "ic": 240,
      "le": 241,
      "Ġh": 242,
      "as": 243,
      "om": 244,
      "ion": 245,
      "Ġth": 246,
      "ll": 247,
      "âĢ": 248,
      "ent": 249,
      "Ġl": 250,
      "ve": 251,
      "Ġe": 252,
      "st": 253,
      "Ġre": 254,
      "Ġn": 255,
      "ro": 256,
      "Ġy": 257,
      "Ġg": 258,
      "ly": 259,
      "ĠI": 260,
      "ct": 261,
      "Ġbe": 262,
      "ĠT": 263,
      "ut": 264,
      "et": 265,
      "ot": 266,
      "Ġis": 267,
      "ĠS": 268,
      "id": 269,
      "Ġyou": 270,
      "Ġon": 271,
      "ay": 272,
      "Ġfor": 273,
      "ow": 274,
      "ĠA": 275,
      "ur": 276,
      "ĠC": 277,
      "se": 278,
      "im": 279,
      "ad": 280,
      "ce": 281,
      "ig": 282,
      "am": 283,
      "ver": 284,
      "Ġthat": 285,
      "Ġu": 286,
      "ch": 287,
      "il": 288,
      "ith": 289,
      "ation": 290,
      "Ġst": 291,
      "ol": 292,
      "ir": 293,
      "Ġwith": 294,
      "âĢĻ": 295,
      "ĠM": 296,
      "Ġit": 297,
      "Ġhe": 298,
      "Ġwe": 299,
      "ra": 300,
      "Ġwh": 301,
      "ĠP": 302,
      "ĠB": 303,
      "Ġan": 304,
      "Ġas": 305,
      "ill": 306,
      "ers": 307,
      "if": 308,
      "ke": 309,
      "Ġpro": 310,
      "ter": 311,
      "Ġare": 312,
      "Ġha": 313,
      "ge": 314,
      "ĠW": 315,
      "Ġcon": 316,
      "ld": 317,
      "oo": 318,
      "her": 319,
      "Ġor": 320,
      "ul": 321,
      "ate": 322,
      "ĠH": 323,
      "ess": 324,
      "ĠD": 325,
      "pp": 326,
      "ck": 327,
      "Ġat": 328,
      "Ġse": 329,
      "Ġcom": 330,
      "ore": 331,
      "ri": 332,
      "ment": 333,
      "ĠThe": 334,
      "est": 335,
      "Ġde": 336,
      "ĠF": 337,
      "Ġ1": 338,
      "us": 339,
      "ĠR": 340,
      "igh": 341,
      "th": 342,
      "ab": 343,
      "Ġwas": 344,
      "Ġ(": 345,
      "rom": 346,
      "ist": 347,
      "Ġ2": 348,
      "Ġne": 349,
      "pe": 350,
      "Ġex": 351,
      "un": 352,
      "ĠL": 353,
      "ant": 354,
      "res": 355,
      "ity": 356,
      "Ġsu": 357,
      "qu": 358,
      "Ġv": 359,
      "ive": 360,
      "op": 361,
      "em": 362,
      "Ġhave": 363,
      "Ġr": 364,
      "ĠG": 365,
      "ort": 366,
      "ĠâĢ": 367,
      "ĠN": 368,
      "ain": 369,
      "art": 370,
      "Ġyour": 371,
      "Ġthis": 372,
      "ĠE": 373,
      "Ġnot": 374,
      "ust": 375,
      "Ġfrom": 376,
      "nt": 377,
      "um": 378,
      "Ġsh": 379,
      "os": 380,
      "el": 381,
      "ies": 382,
      "and": 383,
      "Ġby": 384,
      "Ġal": 385,
      "ight": 386,
      "Ġch": 387,
      "Ġcan": 388,
      "all": 389,
      "ie": 390,
      "Ġle": 391,
      "ome": 392,
      "ard": 393,
      "ĠO": 394,
      "out": 395,
      "Ġwill": 396,
      "ould": 397,
      "ud": 398,
      "our": 399,
      "red": 400,
      "Ġab": 401,
      "Ġdo": 402,
      "iv": 403,
      "Ġwor": 404,
      "gh": 405,
      "ally": 406,
      "00": 407,
      "ost": 408,
      "te": 409,
      "od": 410,
      "Ġpl": 411,
      "'s": 412,
      "Ġall": 413,
      "ĠJ": 414,
      "rou": 415,
      "ast": 416,
      "ci": 417,
      "ear": 418,
      "Ġj": 419,
      "ide": 420,
      "ak": 421,
      "The": 422,
      "ine": 423,
      "Ġk": 424,
      "ure": 425,
      "ag": 426,
      "fe": 427,
      "per": 428,
      "Ġso": 429,
      "Ġhas": 430,
      "pt": 431,
      "Ġme": 432,
      "Ġwhe": 433,
      "Ġbut": 434,
      "ack": 435,
      "âĢĿ": 436,
      "ice": 437,
      "Ġus": 438,
      "age": 439,
      "ction": 440,
      "ich": 441,
      "ac": 442,
      "ther": 443,
      "Ġad": 444,
      "Ġout": 445,
      "pl": 446,
      "ĠU": 447,
      "ake": 448,
      "Ġup": 449,
      "Ġthey": 450,
      "ook": 451,
      "one": 452,
      "ind": 453,
      "og": 454,
      "Ġtheir": 455,
      "so": 456,
      "Ġmore": 457,
      "are": 458,
      "ry": 459,
      "ong": 460,
      "very": 461,
      "Ġcomp": 462,
      "Ġen": 463,
      "able": 464,
      "ime": 465,
      "Ġmy": 466,
      "ated": 467,
      "ood": 468,
      "Ġte": 469,
      "cc": 470,
      "ous": 471,
      "Ġhis": 472,
      "Ġone": 473,
      "ame": 474,
      "ite": 475,
      "ans": 476,
      "iz": 477,
      "Ġcl": 478,
      "ike": 479,
      "ip": 480,
      "Ġsa": 481,
      "orm": 482,
      "Ġwho": 483,
      "Ġabout": 484,
      "Ġim": 485,
      "ĠTh": 486,
      "ĠIn": 487,
      "Ġour": 488,
      "ĠâĢľ": 489,
      "ber": 490,
      "Ġcont": 491,
      "Ġgo": 492,
      "ions": 493,
      "ru": 494,
      "Ġman": 495,
      "cl": 496,
      "Ġwhich": 497,
      "ne": 498,
      "du": 499,
      "Ġfe": 500,
      "act": 501,
      "ance": 502,
      "ĠK": 503,
      "Ġ20": 504,
      "to": 505,
      "ia": 506,
      "ase": 507,
      "ib": 508,
      "Ġres": 509,
      "ail": 510,
      "Ġwork": 511,
      "ire": 512,
      "ign": 513,
      "ĠY": 514,
      "ff": 515,
      "ree": 516,
      "oc": 517,
      "Ġapp": 518,
      "ach": 519,
      "reat": 520,
      "ap": 521,
      "ays": 522,
      "ary": 523,
      "ations": 524,
      "Ġper": 525,
      "ace": 526,
      "ick": 527,
      "Ġother": 528,
      "ult": 529,
      "ven": 530,
      "ep": 531,
      "au": 532,
      "ĠSt": 533,
      "Ġoff": 534,
      "..": 535,
      "ass": 536,
      "Ġyear": 537,
      "Ġtime": 538,
      "ub": 539,
      "Ġqu": 540,
      "ical": 541,
      "Ġsome": 542,
      "Ġlike": 543,
      "ue": 544,
      "Ġalso": 545,
      "Ġany": 546,
      "Ġdis": 547,
      "ile": 548,
      "ount": 549,
      "now": 550,
      "Ġ\"": 551,
      "ence": 552,
      "ove": 553,
      "ark": 554,
      "Ġget": 555,
      "Ġun": 556,
      "form": 557,
      "ĠV": 558,
      "Ġhad": 559,
      "ord": 560,
      "ĠIt": 561,
      "ress": 562,
      "Ġthem": 563,
      "Ġnew": 564,
      "Ġsp": 565,
      "ings": 566,
      "erv": 567,
      "ĠCh": 568,
      "Ġwere": 569,
      "Ġbeen": 570,
      "Ġpart": 571,
      "ond": 572,
      "Ġ3": 573,
      "Ġag": 574,
      "Ġthere": 575,
      "ose": 576,
      "Ġpe": 577,
      "vel": 578,
      "Ġover": 579,
      "Ġwhen": 580,
      "Ġher": 581,
      "ough": 582,
      "Ġwould": 583,
      "Ġwhat": 584,
      "av": 585,
      "ition": 586,
      "Ġar": 587,
      "ial": 588,
      "ents": 589,
      "Ġif": 590,
      "ink": 591,
      "ors": 592,
      "Ġ-": 593,
      "Ġthan": 594,
      "ens": 595,
      "Ġtr": 596,
      "Ġjust": 597,
      "ound": 598,
      "Ġ201": 599,
      "Ġro": 600,
      "Ġpre": 601,
      "irst": 602,
      "port": 603,
      "Ġspe": 604,
      "int": 605,
      "ish": 606,
      "ild": 607,
      "Ġbec": 608,
      "mer": 609,
      "ob": 610,
      "Ġknow": 611,
      "Ġrec": 612,
      "ople": 613,
      "wn": 614,
      "Ġinto": 615,
      "ĠWe": 616,
      "own": 617,
      "Ġneed": 618,
      "ory": 619,
      "Ġsaid": 620,
      "ren": 621,
      "ov": 622,
      "fter": 623,
      "nder": 624,
      "ĠHe": 625,
      "Ġhow": 626,
      "oy": 627,
      "ater": 628,
      "Ġsc": 629,
      "Ġacc": 630,
      "rough": 631,
      "Ġam": 632,
      "ade": 633,
      "Ġtw": 634,
      "Ġco": 635,
      "itt": 636,
      "Ġits": 637,
      "vers": 638,
      "Ġpeople": 639,
      "ang": 640,
      "old": 641,
      "ning": 642,
      "lic": 643,
      "Ġdes": 644,
      "Ġfirst": 645,
      "ons": 646,
      "Ġmay": 647,
      "clud": 648,
      "Ġshe": 649,
      "Ġbl": 650,
      "ces": 651,
      "we": 652,
      "Ġno": 653,
      "ual": 654,
      "ĠâĢĵ": 655,
      "cial": 656,
      "Ġcomm": 657,
      "ause": 658,
      "ian": 659,
      "amp": 660,
      "hed": 661,
      "'t": 662,
      "ates": 663,
      "Ġonly": 664,
      "lp": 665,
      "ull": 666,
      "Ġmake": 667,
      "Ġ19": 668,
      "ft": 669,
      "rent": 670,
      "Ġmost": 671,
      "ric": 672,
      "Ġtra": 673,
      "Ġpo": 674,
      "Ġbet": 675,
      "ments": 676,
      "Ġ4": 677,
      "Ġadd": 678,
      "day": 679,
      "Ġback": 680,
      "end": 681,
      "Ġlook": 682,
      "Ġprov": 683,
      "Ġhelp": 684,
      "Ġind": 685,
      "ating": 686,
      "ĠThis": 687,
      "tern": 688,
      "Ġevery": 689,
      "ily": 690,
      "round": 691,
      "Ġfl": 692,
      "Ġem": 693,
      "Ġthrough": 694,
      "Ġinclud": 695,
      "Ġwant": 696,
      "hing": 697,
      "Ġ5": 698,
      "ise": 699,
      "ĠRe": 700,
      "Ġtwo": 701,
      "Ġcons": 702,
      "ious": 703,
      "Ġsee": 704,
      "iew": 705,
      ").": 706,
      "Ġact": 707,
      "Ġuse": 708,
      "les": 709,
      "Ġwell": 710,
      "Ġthese": 711,
      "gr": 712,
      "Ġprodu": 713,
      "Ġbu": 714,
      "Ġunder": 715,
      "sel": 716,
      "Ġafter": 717,
      "Ġph": 718,
      "ect": 719,
      "ph": 720,
      "ks": 721,
      "fect": 722,
      "ew": 723,
      "ities": 724,
      "ife": 725,
      "Ġcould": 726,
      "oll": 727,
      "iss": 728,
      "xt": 729,
      "fore": 730,
      "ced": 731,
      "Ġserv": 732,
      "rit": 733,
      "Th": 734,
      "ific": 735,
      "hen": 736,
      "urn": 737,
      "pport": 738,
      "Ġdif": 739,
      "row": 740,
      "aw": 741,
      "Ġvery": 742,
      "ting": 743,
      "Ġyears": 744,
      "uch": 745,
      "Ġrel": 746,
      "Ġsy": 747,
      "lect": 748,
      "Ġplay": 749,
      "Ġeven": 750,
      "Ġway": 751,
      "ts": 752,
      "Ġinc": 753,
      "Ġgood": 754,
      "Ġmany": 755,
      "erson": 756,
      "Ġreg": 757,
      "Ġinv": 758,
      "Ġhim": 759,
      "als": 760,
      "ange": 761,
      "Ġra": 762,
      "ject": 763,
      "Ġnow": 764,
      "Ġrem": 765,
      "ful": 766,
      "Ġimp": 767,
      "Ġpr": 768,
      "pect": 769,
      "cess": 770,
      "ont": 771,
      "oss": 772,
      "Ġ200": 773,
      "Ġcol": 774,
      "Ġstud": 775,
      "Ġthen": 776,
      "Ġev": 777,
      "||": 778,
      "Ġwhere": 779,
      "aking": 780,
      "iness": 781,
      "ational": 782,
      "ĠYou": 783,
      "Ġshould": 784,
      "ool": 785,
      "Ġke": 786,
      "ock": 787,
      "Ġsm": 788,
      "oth": 789,
      "com": 790,
      "ert": 791,
      "Ġdid": 792,
      "olog": 793,
      "ible": 794,
      "bs": 795,
      "ased": 796,
      "Ġright": 797,
      "ility": 798,
      "Ġbecause": 799,
      "Ġdon": 800,
      "Ġexper": 801,
      "ident": 802,
      "get": 803,
      "Ġstart": 804,
      "ward": 805,
      "ular": 806,
      "Ġsec": 807,
      "ĠUn": 808,
      "ath": 809,
      "any": 810,
      "Ġdown": 811,
      "ty": 812,
      "ied": 813,
      "ower": 814,
      "Ġown": 815,
      "ures": 816,
      "erm": 817,
      "ĠWh": 818,
      ".âĢĿ": 819,
      "uring": 820,
      "ble": 821,
      "),": 822,
      "ĠSe": 823,
      "Ġac": 824,
      "Ġgreat": 825,
      "Ġfin": 826,
      "ĠAs": 827,
      "Ġgu": 828,
      "Ġthink": 829,
      "formation": 830,
      "Ġbus": 831,
      "Ġmuch": 832,
      "ices": 833,
      "Ġatt": 834,
      "Ġ$": 835,
      "hip": 836,
      "Ġtoo": 837,
      "ys": 838,
      "ĠAnd": 839,
      "hes": 840,
      "ative": 841,
      "other": 842,
      "stem": 843,
      "Ġent": 844,
      "Ġsuch": 845,
      "up": 846,
      "Ġday": 847,
      "ell": 848,
      "ict": 849,
      "its": 850,
      "Ġlong": 851,
      "ited": 852,
      "Ġagain": 853,
      "ork": 854,
      "Ġhigh": 855,
      "omet": 856,
      "ract": 857,
      "Ġ6": 858,
      "arch": 859,
      "Ġdec": 860,
      "In": 861,
      "air": 862,
      "Ġinst": 863,
      "ics": 864,
      "ĠCom": 865,
      "Ġtake": 866,
      "Ġset": 867,
      "velop": 868,
      "Ġfind": 869,
      "alth": 870,
      "Ġthose": 871,
      "Ġread": 872,
      "gan": 873,
      "Ġhere": 874,
      "ener": 875,
      "rib": 876,
      "Ġbeing": 877,
      "Ġbefore": 878,
      "Ġdoes": 879,
      "Ġins": 880,
      "und": 881,
      "Ġbel": 882,
      "Ġend": 883,
      "Ġwee": 884,
      "Ġshow": 885,
      "Ġmade": 886,
      "Ġcall": 887,
      "Ġinte": 888,
      "Ġ&": 889,
      "Ġmon": 890,
      "Ġdiffe": 891,
      "cy": 892,
      "Ġpres": 893,
      "ĠPro": 894,
      "Ġperson": 895,
      "ner": 896,
      "Ġbest": 897,
      "ix": 898,
      "Ġworld": 899,
      "ason": 900,
      "ĠAn": 901,
      "ĠDe": 902,
      "ually": 903,
      "âĢľ": 904,
      "Ġcar": 905,
      "Ġmin": 906,
      "Ġass": 907,
      "chool": 908,
      "alk": 909,
      "ollow": 910,
      "Ġrequ": 911,
      "Ġsur": 912,
      "ues": 913,
      "Ġloc": 914,
      "ĠIf": 915,
      "Ġinformation": 916,
      "Ġfam": 917,
      "Ġbr": 918,
      "Ġlast": 919,
      "Ġhome": 920,
      "way": 921,
      "line": 922,
      "Ġlife": 923,
      "rest": 924,
      "li": 925,
      "ax": 926,
      "ank": 927,
      "Ġche": 928,
      "Ġav": 929,
      "Ġsim": 930,
      "20": 931,
      "Ġbusiness": 932,
      "io": 933,
      "ĠNew": 934,
      "self": 935,
      "ng": 936,
      "Ġmed": 937,
      "ving": 938,
      "Ġ10": 939,
      "We": 940,
      "Ġhand": 941,
      "...": 942,
      "Ġmark": 943,
      "Ġ7": 944,
      "gram": 945,
      "ffect": 946,
      "Ġop": 947,
      "ince": 948,
      "Ġsystem": 949,
      "ins": 950,
      "Ġear": 951,
      "Ġtrans": 952,
      "ather": 953,
      "ave": 954,
      "ublic": 955,
      "Ġmem": 956,
      "Ġpol": 957,
      "Ġused": 958,
      "Ġdevelop": 959,
      "Ġwhile": 960,
      "ĠBut": 961,
      "ros": 962,
      "Ġlead": 963,
      "Ġinter": 964,
      "atch": 965,
      "led": 966,
      "Ġsub": 967,
      "ouse": 968,
      "chn": 969,
      "Ġart": 970,
      "ives": 971,
      ".\"": 972,
      "Ġcount": 973,
      "ness": 974,
      "arm": 975,
      "pr": 976,
      "Ġreally": 977,
      "Ġcre": 978,
      "az": 979,
      "cept": 980,
      "Ġgoing": 981,
      "Ġthough": 982,
      "Ġeach": 983,
      "akes": 984,
      "Ġdet": 985,
      "Ġmod": 986,
      "ple": 987,
      "land": 988,
      "Ġnum": 989,
      "Ġaround": 990,
      "Ġret": 991,
      "imes": 992,
      ",âĢĿ": 993,
      "Ġ8": 994,
      "ience": 995,
      "Ġvis": 996,
      "read": 997,
      "view": 998,
      "Ġdisc": 999,
      "ĠAl": 1000,
      "Ġdesign": 1001,
      "Ġsupport": 1002,
      "Ġproduct": 1003,
      "ale": 1004,
      "Ġsomet": 1005,
      "Ġfollow": 1006,
      "ween": 1007,
      "meric": 1008,
      "Ġcour": 1009,
      "ines": 1010,
      "Ġform": 1011,
      "ality": 1012,
      "Ġstill": 1013,
      "ctions": 1014,
      "ever": 1015,
      "Ġcur": 1016,
      "ĠSh": 1017,
      "ets": 1018,
      "irect": 1019,
      "ene": 1020,
      "Ġsay": 1021,
      "ved": 1022,
      "Ġcare": 1023,
      "ution": 1024,
      "Ġser": 1025,
      "gg": 1026,
      "Ġcomple": 1027,
      "Ġteam": 1028,
      "riend": 1029,
      "Ġadv": 1030,
      "ash": 1031,
      "Ġprovid": 1032,
      "ize": 1033,
      "Ġchar": 1034,
      "roup": 1035,
      "ĠFor": 1036,
      "Ġpoint": 1037,
      "Ġdifferent": 1038,
      "Ġfound": 1039,
      "Ġsign": 1040,
      "der": 1041,
      "Ġbook": 1042,
      "Ġsame": 1043,
      "ĠAr": 1044,
      "oun": 1045,
      "ivers": 1046,
      "Ġsl": 1047,
      "ages": 1048,
      "Ġed": 1049,
      "Ġbetween": 1050,
      "Ġgr": 1051,
      "Ġchild": 1052,
      "lease": 1053,
      "man": 1054,
      "This": 1055,
      "ah": 1056,
      "Ġaut": 1057,
      "ata": 1058,
      "Ġstr": 1059,
      "Ġexp": 1060,
      "Ġrun": 1061,
      "Ġfeel": 1062,
      "ĠSo": 1063,
      "Ġsk": 1064,
      "ittle": 1065,
      "ute": 1066,
      "Ġcommun": 1067,
      "Ġthree": 1068,
      "ĠThey": 1069,
      "Ġboth": 1070,
      "ustom": 1071,
      "Ġplace": 1072,
      "ars": 1073,
      "Wh": 1074,
      "Ġ9": 1075,
      "Ġcle": 1076,
      "It": 1077,
      "ĠBe": 1078,
      "ways": 1079,
      "ĠCl": 1080,
      "Ġfew": 1081,
      "Ġeas": 1082,
      "Ġbo": 1083,
      "000": 1084,
      "Ġgl": 1085,
      "Ġstate": 1086,
      "ex": 1087,
      "the": 1088,
      "ional": 1089,
      "Ġlot": 1090,
      "Ġhapp": 1091,
      "Ġprogram": 1092,
      "ists": 1093,
      "Ġfree": 1094,
      "ĠAmeric": 1095,
      "Ġmet": 1096,
      "Ġpost": 1097,
      "ton": 1098,
      "less": 1099,
      "Ġlove": 1100,
      "ten": 1101,
      "Ġrep": 1102,
      "ĠLe": 1103,
      "Ġpur": 1104,
      "ized": 1105,
      "Ġthings": 1106,
      "Ġimport": 1107,
      "ody": 1108,
      "ames": 1109,
      "ient": 1110,
      "Ġprocess": 1111,
      "Ġprof": 1112,
      "ired": 1113,
      "Ġfun": 1114,
      "cer": 1115,
      "ves": 1116,
      "orn": 1117,
      "be": 1118,
      "Ġfull": 1119,
      "Ġtop": 1120,
      "Ġext": 1121,
      "ology": 1122,
      "vern": 1123,
      "Ġlar": 1124,
      "thing": 1125,
      "ĠAd": 1126,
      "Ġmonth": 1127,
      "ety": 1128,
      "Ġgener": 1129,
      "Ġlittle": 1130,
      "Ġfact": 1131,
      "Ġreal": 1132,
      "oh": 1133,
      "ants": 1134,
      "ital": 1135,
      "ailable": 1136,
      "ature": 1137,
      "ross": 1138,
      "Ġreport": 1139,
      "Ġlist": 1140,
      "Ġhealth": 1141,
      "Ġduring": 1142,
      "cent": 1143,
      "arn": 1144,
      "Ġplan": 1145,
      "Ġappro": 1146,
      "Ġtechn": 1147,
      "Ġkeep": 1148,
      "oad": 1149,
      "Ġopen": 1150,
      "Ġcome": 1151,
      "bers": 1152,
      "Ġdef": 1153,
      "ug": 1154,
      "uc": 1155,
      "Ġfr": 1156,
      "Ġref": 1157,
      "Ġfil": 1158,
      "Ġpat": 1159,
      "Ġposs": 1160,
      "Ġob": 1161,
      "ering": 1162,
      "ield": 1163,
      ",\"": 1164,
      "con": 1165,
      "Ġusing": 1166,
      "Ġint": 1167,
      "ically": 1168,
      "Ġcent": 1169,
      "Ġpartic": 1170,
      "ms": 1171,
      "ished": 1172,
      "att": 1173,
      "Ġsomething": 1174,
      "10": 1175,
      "iving": 1176,
      "Ġrest": 1177,
      "Ġiss": 1178,
      "Ġresp": 1179,
      "Ġcontin": 1180,
      "Ġwithout": 1181,
      "ined": 1182,
      "rand": 1183,
      "Ġgame": 1184,
      "Ġcustom": 1185,
      "gy": 1186,
      "Ġput": 1187,
      "oot": 1188,
      "Ġresult": 1189,
      "Ġty": 1190,
      "Ġmust": 1191,
      "Ġschool": 1192,
      "ĠThere": 1193,
      "ining": 1194,
      "tt": 1195,
      "Ġinterest": 1196,
      "Ġcor": 1197,
      "ared": 1198,
      "ger": 1199,
      "Ġanother": 1200,
      "Ġincluding": 1201,
      "Ġgot": 1202,
      "Ġallow": 1203,
      "Ġbetter": 1204,
      "atur": 1205,
      "Ġnext": 1206,
      "Ġpri": 1207,
      "ĠBl": 1208,
      "Ġbig": 1209,
      "Ġmight": 1210,
      "ention": 1211,
      "Ġvar": 1212,
      "Ġdist": 1213,
      "Ġavailable": 1214,
      "Ġfriend": 1215,
      "Ġsol": 1216,
      "Ġalways": 1217,
      "Ġpass": 1218,
      "Ġsmall": 1219,
      "Ġquest": 1220,
      "Ġcompany": 1221,
      "Ġconf": 1222,
      "Ġtry": 1223,
      "Ġhead": 1224,
      "Ġgroup": 1225,
      "uss": 1226,
      "Ġwr": 1227,
      "Ġide": 1228,
      "ĠShe": 1229,
      "ĠHow": 1230,
      "Ġsince": 1231,
      "Ġsecond": 1232,
      "Ġstand": 1233,
      "ense": 1234,
      "Ġmain": 1235,
      "Ġmarket": 1236,
      "ik": 1237,
      "iqu": 1238,
      "Ġnever": 1239,
      "Ġweek": 1240,
      "Ġeffect": 1241,
      "Ġval": 1242,
      "reen": 1243,
      "ĠâĢĺ": 1244,
      "Ġfamily": 1245,
      "Ġwater": 1246,
      "Ġorgan": 1247,
      "ploy": 1248,
      "Ġtri": 1249,
      "stand": 1250,
      "Ġbuild": 1251,
      "Ġpay": 1252,
      "Ġopt": 1253,
      "âĢ¦": 1254,
      "Ġdata": 1255,
      "Ġdri": 1256,
      "Ġmus": 1257,
      "Ġhard": 1258,
      "ertain": 1259,
      "Ġwom": 1260,
      "Ġnumber": 1261,
      "ier": 1262,
      "ision": 1263,
      "ism": 1264,
      "Ġmov": 1265,
      "ately": 1266,
      "Ġrece": 1267,
      "aj": 1268,
      "ample": 1269,
      "Ġincre": 1270,
      "ĠIs": 1271,
      "Ġimportant": 1272,
      "Ġask": 1273,
      "illion": 1274,
      "ĠOn": 1275,
      "Ġcr": 1276,
      "ĠAll": 1277,
      "Ġproble": 1278,
      "ĠFr": 1279,
      "ĠPl": 1280,
      "Ġexperience": 1281,
      "ware": 1282,
      "Ġpublic": 1283,
      "Ġsure": 1284,
      "Ġpower": 1285,
      "ling": 1286,
      "ĠEx": 1287,
      "Ġold": 1288,
      "Ġi": 1289,
      "rol": 1290,
      "rist": 1291,
      "els": 1292,
      "Ġdirect": 1293,
      "Ġexpl": 1294,
      "Ġinf": 1295,
      "me": 1296,
      "Ġbro": 1297,
      "Ġperform": 1298,
      "Ġlevel": 1299,
      "oney": 1300,
      "iversity": 1301,
      "ĠâĢĶ": 1302,
      "Ġdays": 1303,
      "ER": 1304,
      "rence": 1305,
      "19": 1306,
      "ted": 1307,
      "ĠInd": 1308,
      "âĢĶ": 1309,
      "If": 1310,
      "Ġservice": 1311,
      "Ġproject": 1312,
      "Ġagainst": 1313,
      "ccess": 1314,
      "Ġclass": 1315,
      "ior": 1316,
      "Ġspec": 1317,
      "ird": 1318,
      "ĠQ": 1319,
      "Ġgive": 1320,
      "Ġlaw": 1321,
      "Ġ'": 1322,
      "Ġel": 1323,
      "ral": 1324,
      "Ġless": 1325,
      "Ġ12": 1326,
      "Ġbre": 1327,
      "Ġwin": 1328,
      "Ġgrow": 1329,
      "Ġlet": 1330,
      "ps": 1331,
      "ok": 1332,
      "Ġcost": 1333,
      "Ġseem": 1334,
      "Ġbelie": 1335,
      "Ġinvest": 1336,
      "pend": 1337,
      "Ġonline": 1338,
      "Ġable": 1339,
      "co": 1340,
      "work": 1341,
      "ases": 1342,
      "Ġ0": 1343,
      "uck": 1344,
      "Ġtest": 1345,
      "inal": 1346,
      "Ġve": 1347,
      "ards": 1348,
      "Ġlight": 1349,
      "Ġca": 1350,
      "Ġfour": 1351,
      "Ġhum": 1352,
      "Ġpos": 1353,
      "Ġrese": 1354,
      "Ġcurrent": 1355,
      "Ġdi": 1356,
      "raph": 1357,
      "ote": 1358,
      "ats": 1359,
      "ĠPh": 1360,
      "Ġsays": 1361,
      "Ġunt": 1362,
      "ivid": 1363,
      "ered": 1364,
      "Ġprovide": 1365,
      "ients": 1366,
      "ĠTe": 1367,
      "ĠZ": 1368,
      "Ġsit": 1369,
      "here": 1370,
      "ours": 1371,
      "Ġorder": 1372,
      "ĠCon": 1373,
      "Ġ18": 1374,
      "Ġleg": 1375,
      "Ġturn": 1376,
      "ien": 1377,
      "Ġwithin": 1378,
      "Ġmeet": 1379,
      "gin": 1380,
      "He": 1381,
      "cing": 1382,
      "outh": 1383,
      "vernment": 1384,
      "ably": 1385,
      "ruct": 1386,
      "ration": 1387,
      "ember": 1388,
      "ann": 1389,
      "ĠCol": 1390,
      "pped": 1391,
      "ope": 1392,
      "Ġ.": 1393,
      "ron": 1394,
      "ently": 1395,
      "ĠUS": 1396,
      "ffic": 1397,
      "ĠThat": 1398,
      "Ġpop": 1399,
      "Ġtoday": 1400,
      "ator": 1401,
      "Ġjob": 1402,
      "50": 1403,
      "med": 1404,
      "pos": 1405,
      ".,": 1406,
      "Ġoper": 1407,
      "Ġproper": 1408,
      "ised": 1409,
      "Ġprote": 1410,
      "aut": 1411,
      "Ġfood": 1412,
      "Ġprev": 1413,
      "ret": 1414,
      "Ġaway": 1415,
      "ission": 1416,
      "ec": 1417,
      "ott": 1418,
      "Ġbeh": 1419,
      "Ġann": 1420,
      "pping": 1421,
      "oint": 1422,
      "Ġest": 1423,
      "Ġview": 1424,
      "ium": 1425,
      "Ġmaking": 1426,
      "ider": 1427,
      "Ġhist": 1428,
      "Ġaccess": 1429,
      "atter": 1430,
      "Ġworking": 1431,
      "Ġdem": 1432,
      "ains": 1433,
      "Ġsupp": 1434,
      "Ġcourse": 1435,
      "Ġservices": 1436,
      "Ġprom": 1437,
      "Ġsing": 1438,
      "Ġcase": 1439,
      "of": 1440,
      "ged": 1441,
      "hor": 1442,
      "Ġaddition": 1443,
      "ĠSp": 1444,
      "Ġarea": 1445,
      "Ġtru": 1446,
      "You": 1447,
      "ĠMan": 1448,
      "Ġsal": 1449,
      "Ġphot": 1450,
      "Ġequ": 1451,
      "Ġeng": 1452,
      "ney": 1453,
      "Ġcap": 1454,
      "As": 1455,
      "Ġnight": 1456,
      "ured": 1457,
      "lish": 1458,
      "ified": 1459,
      "ĠOr": 1460,
      "Ġspecial": 1461,
      "ead": 1462,
      "ording": 1463,
      "Ġchange": 1464,
      "Ġthing": 1465,
      "ream": 1466,
      "ids": 1467,
      "Ġwebs": 1468,
      "iron": 1469,
      "orth": 1470,
      "tend": 1471,
      "ww": 1472,
      "ley": 1473,
      "Ġchang": 1474,
      "Ġuntil": 1475,
      "Ġwrit": 1476,
      "ĠComm": 1477,
      "Ġpast": 1478,
      "ories": 1479,
      "por": 1480,
      "ĠTo": 1481,
      "Ġchildren": 1482,
      "ina": 1483,
      "ify": 1484,
      "Ġpresent": 1485,
      "Ġwhy": 1486,
      "ury": 1487,
      "Ġword": 1488,
      "IN": 1489,
      "omm": 1490,
      "Ġlooking": 1491,
      "iting": 1492,
      "Ġfac": 1493,
      "ĠTr": 1494,
      "Ġkind": 1495,
      "Ġconst": 1496,
      "ĠSc": 1497,
      "'re": 1498,
      "eng": 1499,
      "Ġbas": 1500,
      "lection": 1501,
      "min": 1502,
      "Ġmoney": 1503,
      "itions": 1504,
      "ĠRes": 1505,
      "Ġpract": 1506,
      "cu": 1507,
      "ĠCent": 1508,
      "Ġstudents": 1509,
      "augh": 1510,
      "ump": 1511,
      "aring": 1512,
      "Ġlocal": 1513,
      "joy": 1514,
      "Ġlarge": 1515,
      "Ġseason": 1516,
      "30": 1517,
      "ability": 1518,
      "Ġunderstand": 1519,
      "Ġleft": 1520,
      "Ġprofess": 1521,
      "sh": 1522,
      "Ġterm": 1523,
      "ĠChrist": 1524,
      "Ġname": 1525,
      "Ġintern": 1526,
      "soci": 1527,
      "Ġemploy": 1528,
      "Ġoften": 1529,
      "Ġevent": 1530,
      "gether": 1531,
      "Ġtogether": 1532,
      "Ġsite": 1533,
      "ohn": 1534,
      "irl": 1535,
      "Ġdev": 1536,
      "ization": 1537,
      "Ġvide": 1538,
      "Ġactiv": 1539,
      "ising": 1540,
      "Ġsuccess": 1541,
      "conom": 1542,
      "Ġtimes": 1543,
      "ĠMar": 1544,
      "Ġroom": 1545,
      "icle": 1546,
      "arent": 1547,
      "agement": 1548,
      "ries": 1549,
      "ential": 1550,
      "iven": 1551,
      "12": 1552,
      "Ġexpect": 1553,
      "Ġdidn": 1554,
      "let": 1555,
      "Ġdr": 1556,
      "ĠCan": 1557,
      "Ġtell": 1558,
      "by": 1559,
      "Ġcond": 1560,
      "Ġtalk": 1561,
      "Ġimpro": 1562,
      "Ġapplic": 1563,
      "utes": 1564,
      "Ġ15": 1565,
      "ĠGod": 1566,
      "Ġhaving": 1567,
      "Ġes": 1568,
      "Ġcomplete": 1569,
      "Ġindust": 1570,
      "ee": 1571,
      "Ġdra": 1572,
      "ajor": 1573,
      "Ġcheck": 1574,
      "Ġalong": 1575,
      "Ġnear": 1576,
      "ills": 1577,
      "ived": 1578,
      "ĠNo": 1579,
      "part": 1580,
      "Ġenough": 1581,
      "ode": 1582,
      "ready": 1583,
      "Ġcreat": 1584,
      "Ġlearn": 1585,
      "Ġ[": 1586,
      "Ġmove": 1587,
      "ĠWhen": 1588,
      "ox": 1589,
      "Ġsw": 1590,
      "Ġside": 1591,
      "ividual": 1592,
      "urs": 1593,
      "Ġshort": 1594,
      "Ġpain": 1595,
      "ane": 1596,
      "veral": 1597,
      "ocus": 1598,
      "itive": 1599,
      "Ġever": 1600,
      "ination": 1601,
      "Ġtreat": 1602,
      "ĠWhat": 1603,
      "aster": 1604,
      "Ġproducts": 1605,
      "Ġbecome": 1606,
      "alf": 1607,
      "br": 1608,
      "Ġair": 1609,
      "Ġcountry": 1610,
      "Ġ11": 1611,
      "Ġcommunity": 1612,
      "ON": 1613,
      "ĠUniversity": 1614,
      "Ġinclude": 1615,
      "ots": 1616,
      "Ġdone": 1617,
      "ency": 1618,
      "Ġcalled": 1619,
      "Ġrecord": 1620,
      "une": 1621,
      "Ġ199": 1622,
      "Ġmen": 1623,
      "side": 1624,
      "enn": 1625,
      "Ġhouse": 1626,
      "Ġstory": 1627,
      "aim": 1628,
      "Ġaccount": 1629,
      "Ġoffic": 1630,
      "Ġoffer": 1631,
      "aterial": 1632,
      "ĠMay": 1633,
      "Ġpa": 1634,
      "Ġmembers": 1635,
      "ery": 1636,
      "Ġline": 1637,
      "enef": 1638,
      "Ġalready": 1639,
      "Ġconne": 1640,
      "Ġbit": 1641,
      "Ġmar": 1642,
      "Ġ30": 1643,
      "Ġfar": 1644,
      "ĠWith": 1645,
      "Ġbuy": 1646,
      "Ġcertain": 1647,
      "Ġmil": 1648,
      "'m": 1649,
      "ern": 1650,
      "What": 1651,
      "ĠEng": 1652,
      "Ġpersonal": 1653,
      "ained": 1654,
      "Ġpossible": 1655,
      "Ġenjoy": 1656,
      "Ġtrad": 1657,
      "Ġresearch": 1658,
      "ĠAt": 1659,
      "Ġbody": 1660,
      "ows": 1661,
      "Ġfollowing": 1662,
      "Ġcame": 1663,
      "Ġindividual": 1664,
      "Ġlive": 1665,
      "St": 1666,
      "err": 1667,
      "Ġfeat": 1668,
      "Ġocc": 1669,
      "ored": 1670,
      "ails": 1671,
      "Ġmakes": 1672,
      "Ġseveral": 1673,
      "11": 1674,
      "son": 1675,
      "Ġothers": 1676,
      "Ġmean": 1677,
      "For": 1678,
      "rap": 1679,
      "!!": 1680,
      "Ġneeds": 1681,
      "viron": 1682,
      "ither": 1683,
      "Ġgovernment": 1684,
      "ĠFl": 1685,
      "Ġnews": 1686,
      "Ġgetting": 1687,
      "Ġcamp": 1688,
      "ĠAmerican": 1689,
      "Ġcontrol": 1690,
      "Ġpot": 1691,
      "Ġcou": 1692,
      "Ġreview": 1693,
      "over": 1694,
      "Ġmeans": 1695,
      "ush": 1696,
      "Ġdoing": 1697,
      "Ġwomen": 1698,
      "ES": 1699,
      "Ġsocial": 1700,
      "Ġfore": 1701,
      "pportun": 1702,
      "Ġeasy": 1703,
      "uture": 1704,
      "ances": 1705,
      "Ġhold": 1706,
      "ĠCar": 1707,
      "ands": 1708,
      "rop": 1709,
      "Ġtre": 1710,
      "fort": 1711,
      "Ġwebsite": 1712,
      "Ġmusic": 1713,
      "Ġquality": 1714,
      "Ġlim": 1715,
      "ique": 1716,
      "Ġmajor": 1717,
      "oice": 1718,
      "Ġbased": 1719,
      "Ġreturn": 1720,
      "Ġleast": 1721,
      "Ġwent": 1722,
      "Ġnon": 1723,
      "Ġmillion": 1724,
      "oor": 1725,
      "AT": 1726,
      "Ġelect": 1727,
      "Ġthought": 1728,
      "atic": 1729,
      "Ġactually": 1730,
      "duct": 1731,
      "Ġfocus": 1732,
      "Ġmind": 1733,
      "aff": 1734,
      "osed": 1735,
      "Ġeduc": 1736,
      "ĠAm": 1737,
      "Ġvisit": 1738,
      "orts": 1739,
      "ript": 1740,
      "ĠJohn": 1741,
      "fer": 1742,
      "Ġ|": 1743,
      "Ġbenef": 1744,
      "Ġcomes": 1745,
      "Ġtook": 1746,
      "Ġdoesn": 1747,
      "'ve": 1748,
      "Ġfav": 1749,
      "for": 1750,
      "cially": 1751,
      "ians": 1752,
      "ĠMy": 1753,
      "AR": 1754,
      "Ġacross": 1755,
      "most": 1756,
      "Ġyoung": 1757,
      "wh": 1758,
      "Ġey": 1759,
      "ĠSu": 1760,
      "Ġcharact": 1761,
      "lement": 1762,
      "idd": 1763,
      "Ġopportun": 1764,
      "ones": 1765,
      "Ġcreate": 1766,
      "Ġpercent": 1767,
      "Ġla": 1768,
      "Ġmom": 1769,
      "aps": 1770,
      "not": 1771,
      "mber": 1772,
      "Ġanal": 1773,
      "ched": 1774,
      "ides": 1775,
      "Ġclear": 1776,
      "ully": 1777,
      "Ġparticular": 1778,
      "ches": 1779,
      "uro": 1780,
      "Ġfund": 1781,
      "Ġonce": 1782,
      "Ġdeal": 1783,
      "wards": 1784,
      "Ġlow": 1785,
      "Ġorig": 1786,
      "ĠRep": 1787,
      "Ġquick": 1788,
      "ama": 1789,
      "ĠApp": 1790,
      "OR": 1791,
      "ĠSte": 1792,
      "Ġstarted": 1793,
      "Ġ--": 1794,
      "Ġwon": 1795,
      "app": 1796,
      "There": 1797,
      "Ġmult": 1798,
      "Ġinvol": 1799,
      "Ġmaterial": 1800,
      "crib": 1801,
      "ape": 1802,
      "vironment": 1803,
      "Ġcontact": 1804,
      "yle": 1805,
      "mm": 1806,
      "Ġeconom": 1807,
      "Ġhappen": 1808,
      "Ġyet": 1809,
      "book": 1810,
      "ony": 1811,
      "aken": 1812,
      "Ġsoft": 1813,
      "urther": 1814,
      "Ġce": 1815,
      "AN": 1816,
      "isk": 1817,
      "Ġnet": 1818,
      "âĢĵ": 1819,
      "Ġdevelopment": 1820,
      "Ġreason": 1821,
      "Ġcity": 1822,
      "Ġfuture": 1823,
      "Ġexample": 1824,
      "Ġlater": 1825,
      "ference": 1826,
      "uff": 1827,
      "arr": 1828,
      "Ġlink": 1829,
      "Ġess": 1830,
      "Ġearly": 1831,
      "Ġcut": 1832,
      "Ġtold": 1833,
      "room": 1834,
      "lf": 1835,
      "Ġhours": 1836,
      "Ġspecific": 1837,
      "ai": 1838,
      "Ġtem": 1839,
      "lished": 1840,
      "ulation": 1841,
      "Ġbring": 1842,
      "Ġvers": 1843,
      "Ġfriends": 1844,
      "ograph": 1845,
      "Ġmonths": 1846,
      "Ġstudy": 1847,
      "ĠÂ": 1848,
      "Ġredu": 1849,
      "Ġident": 1850,
      "ĠMed": 1851,
      "ips": 1852,
      "Ġstrong": 1853,
      "load": 1854,
      "ĠUnited": 1855,
      "Ġfive": 1856,
      "pro": 1857,
      "Ġpar": 1858,
      "Ġperfect": 1859,
      "Ġhuman": 1860,
      "ĠCo": 1861,
      "ister": 1862,
      "Ġheart": 1863,
      "Ġbeaut": 1864,
      "ĠThese": 1865,
      "use": 1866,
      "Ġshare": 1867,
      "Ġtyp": 1868,
      "Ġhig": 1869,
      "ges": 1870,
      "Ġkey": 1871,
      "Ġcomb": 1872,
      "ource": 1873,
      "che": 1874,
      "iday": 1875,
      "And": 1876,
      "Ġknown": 1877,
      "An": 1878,
      "Ġwa": 1879,
      "ĠSy": 1880,
      "Ġclose": 1881,
      "ift": 1882,
      "Ġbegin": 1883,
      "eb": 1884,
      "Ġ14": 1885,
      "Ġappear": 1886,
      "Ġcover": 1887,
      "Ġvideo": 1888,
      "lling": 1889,
      "Ġtax": 1890,
      "Ġpress": 1891,
      "Ġrequire": 1892,
      "cle": 1893,
      "Ġstep": 1894,
      "ateg": 1895,
      "Ġ16": 1896,
      "Ġproblem": 1897,
      "Ġbelow": 1898,
      "Ġitem": 1899,
      "resent": 1900,
      "Ġhot": 1901,
      "ĠBr": 1902,
      "ĠState": 1903,
      "ster": 1904,
      "ĠPr": 1905,
      "Ġauthor": 1906,
      "Ġpolit": 1907,
      "ober": 1908,
      "ights": 1909,
      "Ġemail": 1910,
      "ino": 1911,
      "ĠIntern": 1912,
      "Ġcompan": 1913,
      "oon": 1914,
      "Ġrele": 1915,
      "ĠOne": 1916,
      "sw": 1917,
      "Ġfield": 1918,
      "Ġdeli": 1919,
      "Ġet": 1920,
      "Ġpage": 1921,
      "par": 1922,
      "ources": 1923,
      "icy": 1924,
      "reet": 1925,
      "oose": 1926,
      "urity": 1927,
      "ĠWor": 1928,
      "utions": 1929,
      "osp": 1930,
      "'ll": 1931,
      "Ġpack": 1932,
      "oard": 1933,
      "de": 1934,
      "ĠX": 1935,
      "But": 1936,
      "Ġdiscuss": 1937,
      "Ġcompet": 1938,
      "ĠNe": 1939,
      "Ġeverything": 1940,
      "Ġchall": 1941,
      "Ġener": 1942,
      "Ġvari": 1943,
      "iod": 1944,
      "lege": 1945,
      "illed": 1946,
      "Ġant": 1947,
      "ĠEn": 1948,
      "hod": 1949,
      "idence": 1950,
      "itor": 1951,
      "unch": 1952,
      "ilities": 1953,
      "Ġpriv": 1954,
      "Ġprob": 1955,
      "How": 1956,
      "acy": 1957,
      "Ġsound": 1958,
      "Ġgiven": 1959,
      "Ġhistory": 1960,
      "Ġface": 1961,
      "ned": 1962,
      "Ġwalk": 1963,
      "though": 1964,
      "15": 1965,
      "eral": 1966,
      "Ġrelations": 1967,
      "ĠHowever": 1968,
      "Ġpurch": 1969,
      "ĠCont": 1970,
      "Ġwhole": 1971,
      "ĠInst": 1972,
      "Ġindustry": 1973,
      "ĠDo": 1974,
      "ball": 1975,
      "ler": 1976,
      "ourn": 1977,
      "Ġminutes": 1978,
      "Ġgames": 1979,
      "Ġcult": 1980,
      "Ġquestion": 1981,
      "Ġpie": 1982,
      "Ġrespons": 1983,
      "When": 1984,
      "Ġpick": 1985,
      "ilar": 1986,
      "Ġseen": 1987,
      "Ġtot": 1988,
      "--": 1989,
      "Ġens": 1990,
      "Ġspace": 1991,
      "Ġwhether": 1992,
      "rew": 1993,
      "ĠYork": 1994,
      "Ġsingle": 1995,
      "On": 1996,
      "Ġ/": 1997,
      "Ġamong": 1998,
      "Ġsomeone": 1999,
      "Ġage": 2000,
      "ilt": 2001,
      "Ġbelieve": 2002,
      "ural": 2003,
      "Ġwind": 2004,
      "Ġstay": 2005,
      "aces": 2006,
      "Ġaddress": 2007,
      "ensive": 2008,
      "ners": 2009,
      "Ġago": 2010,
      "ply": 2011,
      "Ġtaking": 2012,
      "Ġsci": 2013,
      "Ġmor": 2014,
      "go": 2015,
      "pecially": 2016,
      "atural": 2017,
      "Ġcontent": 2018,
      "selves": 2019,
      "Ġsuper": 2020,
      "Ġbreak": 2021,
      "ĠNot": 2022,
      "Ch": 2023,
      "new": 2024,
      "Ġhalf": 2025,
      "Ġmess": 2026,
      "hers": 2027,
      "tain": 2028,
      "Ġ2012": 2029,
      "Ġhope": 2030,
      "rain": 2031,
      "So": 2032,
      "ided": 2033,
      "rict": 2034,
      "Ġste": 2035,
      "ibility": 2036,
      "ued": 2037,
      "ison": 2038,
      "ĠServ": 2039,
      "Ġenc": 2040,
      "Ġamount": 2041,
      "Ġ100": 2042,
      "Ġvol": 2043,
      "Ġclaim": 2044,
      "mb": 2045,
      "ĠMc": 2046,
      "ĠMe": 2047,
      "Ġmedia": 2048,
      "ctor": 2049,
      "ging": 2050,
      "ggest": 2051,
      "abor": 2052,
      "play": 2053,
      "AS": 2054,
      "Ġseries": 2055,
      "Ġanything": 2056,
      "fic": 2057,
      "Ġ13": 2058,
      "Ġpub": 2059,
      "ĠCount": 2060,
      "ogn": 2061,
      "Ġprice": 2062,
      "imate": 2063,
      "Ġenvironment": 2064,
      "af": 2065,
      "Ġcommon": 2066,
      "iously": 2067,
      "Ġissues": 2068,
      "Ġphys": 2069,
      "irm": 2070,
      "Ġgirl": 2071,
      "fully": 2072,
      "Ġjo": 2073,
      "Ġfre": 2074,
      "ental": 2075,
      "Ġdue": 2076,
      "Ġclean": 2077,
      "Ġconcer": 2078,
      "Ġabove": 2079,
      "Ġfall": 2080,
      "ĠCal": 2081,
      "ledge": 2082,
      "iver": 2083,
      "Ġstore": 2084,
      "Ġcompanies": 2085,
      "Ġtool": 2086,
      "Ġ17": 2087,
      "Ġcred": 2088,
      "Ġmanag": 2089,
      "Ġcra": 2090,
      "Ġmot": 2091,
      "Ġrecomm": 2092,
      "IS": 2093,
      "rown": 2094,
      "EN": 2095,
      "13": 2096,
      "18": 2097,
      "dd": 2098,
      "Ġquestions": 2099,
      "Ġrecommend": 2100,
      "Ġsex": 2101,
      "Ġplease": 2102,
      "Ġfront": 2103,
      "ĠComp": 2104,
      "Ġbad": 2105,
      "ĠGu": 2106,
      "Ġresults": 2107,
      "urch": 2108,
      "Ġenergy": 2109,
      "irt": 2110,
      "Ġeff": 2111,
      "ancial": 2112,
      "Ġidea": 2113,
      "gle": 2114,
      "Ġtechnology": 2115,
      "Ġconsider": 2116,
      "Ġaud": 2117,
      "Ġport": 2118,
      "ille": 2119,
      "Ġmeas": 2120,
      "Ġrange": 2121,
      "Ġperiod": 2122,
      "Ġblog": 2123,
      "16": 2124,
      "Ġwatch": 2125,
      "Ġcrit": 2126,
      "Ġalmost": 2127,
      "Re": 2128,
      "Ġ24": 2129,
      "Ġz": 2130,
      "Ġwond": 2131,
      "Ġeither": 2132,
      "ĠEuro": 2133,
      "AL": 2134,
      "Ġsuggest": 2135,
      "back": 2136,
      "asing": 2137,
      "Ġbuilding": 2138,
      "vent": 2139,
      "ED": 2140,
      "come": 2141,
      "ĠCity": 2142,
      "cript": 2143,
      "Ġworks": 2144,
      "uation": 2145,
      "Ġsearch": 2146,
      "Ġbar": 2147,
      "200": 2148,
      "ators": 2149,
      "Ġthird": 2150,
      "Ġsix": 2151,
      "//": 2152,
      "Ġfurther": 2153,
      "Ġblack": 2154,
      "Ġaff": 2155,
      "ĠStates": 2156,
      "Ġ25": 2157,
      "itted": 2158,
      "Ġtravel": 2159,
      "ĠPres": 2160,
      "elt": 2161,
      "ĠOur": 2162,
      "Ġcompl": 2163,
      "Ġentire": 2164,
      "ams": 2165,
      "ried": 2166,
      "used": 2167,
      "Ġcomput": 2168,
      "org": 2169,
      "anks": 2170,
      "Ġeveryone": 2171,
      "Ġcal": 2172,
      "Ġpoints": 2173,
      "Ġtaken": 2174,
      "ĠGo": 2175,
      "Ġcir": 2176,
      "yl": 2177,
      "ask": 2178,
      "14": 2179,
      "Ġland": 2180,
      "Ġnecess": 2181,
      "ĠYour": 2182,
      "Ġtrying": 2183,
      "rodu": 2184,
      "Ġfilm": 2185,
      "://": 2186,
      "Ġbrand": 2187,
      "ples": 2188,
      "Ġdeb": 2189,
      "Ġdou": 2190,
      "ĠMin": 2191,
      "lex": 2192,
      "IT": 2193,
      "ĠChe": 2194,
      "Ġlikely": 2195,
      "ites": 2196,
      "ung": 2197,
      "ively": 2198,
      "cell": 2199,
      "Ġpict": 2200,
      "Ġtype": 2201,
      "Ġrelationship": 2202,
      "Ġtrack": 2203,
      "Ġmiss": 2204,
      "vert": 2205,
      "Ġself": 2206,
      ".)": 2207,
      "Ġdocu": 2208,
      "Ġ#": 2209,
      "rie": 2210,
      "ĠNational": 2211,
      "oid": 2212,
      "omes": 2213,
      "chie": 2214,
      "obal": 2215,
      "Ġespecially": 2216,
      "ili": 2217,
      "Ġtraining": 2218,
      "Ġwriting": 2219,
      "Ġfavor": 2220,
      "Ġrepl": 2221,
      "Ġfeatures": 2222,
      "Ġdel": 2223,
      "Ġwanted": 2224,
      "Ġvalue": 2225,
      "umb": 2226,
      "ficult": 2227,
      "time": 2228,
      "Ġmag": 2229,
      "Ġneeded": 2230,
      "Ġareas": 2231,
      "resh": 2232,
      "ĠJan": 2233,
      "Ġcustomers": 2234,
      "oved": 2235,
      "gest": 2236,
      "my": 2237,
      "ops": 2238,
      "ires": 2239,
      "Ġsimple": 2240,
      "ume": 2241,
      "Ġ:": 2242,
      "iol": 2243,
      "Ġcard": 2244,
      "Ġdig": 2245,
      "ĠTw": 2246,
      "Ġsent": 2247,
      "opy": 2248,
      "Ġpret": 2249,
      "ially": 2250,
      "aur": 2251,
      "Ġ50": 2252,
      "ĠAfter": 2253,
      "Ġele": 2254,
      "Ġprotect": 2255,
      "Ġspend": 2256,
      "Ġoffers": 2257,
      "arning": 2258,
      "Ġrather": 2259,
      "Ġquite": 2260,
      "Ġmanagement": 2261,
      "Ġ2013": 2262,
      "Ġhowever": 2263,
      "itch": 2264,
      "ĠSchool": 2265,
      "Ġimprove": 2266,
      "25": 2267,
      "Ġvarious": 2268,
      "Ġweb": 2269,
      "Ġsignific": 2270,
      "ĠGr": 2271,
      "year": 2272,
      "Ġcell": 2273,
      "Ġexc": 2274,
      "Ġissue": 2275,
      "Ġoffice": 2276,
      "yn": 2277,
      "Ġcoming": 2278,
      "ĠEurope": 2279,
      "Ġrisk": 2280,
      "gress": 2281,
      "Ġmethod": 2282,
      "ication": 2283,
      "Ġparticip": 2284,
      "ification": 2285,
      "ĠWorld": 2286,
      "Ġasked": 2287,
      "ruction": 2288,
      "IC": 2289,
      "ĠMr": 2290,
      "Ġdifficult": 2291,
      "Ġelse": 2292,
      "Ġoil": 2293,
      "itting": 2294,
      "Ġperformance": 2295,
      "Ġhost": 2296,
      "Ġred": 2297,
      "ĠNorth": 2298,
      "Ġinstall": 2299,
      "To": 2300,
      "Ġabs": 2301,
      "Ġexist": 2302,
      "fact": 2303,
      "Ġparent": 2304,
      "Ġtext": 2305,
      "Ġsimply": 2306,
      "Ġprobably": 2307,
      "ises": 2308,
      "ĠSec": 2309,
      "ĠPe": 2310,
      "ĠGe": 2311,
      "ĠEd": 2312,
      "Ġways": 2313,
      "iful": 2314,
      "ĠSouth": 2315,
      "Ġrequired": 2316,
      "Ġevents": 2317,
      "US": 2318,
      "Ġfoot": 2319,
      "Ġadded": 2320,
      "Ġpretty": 2321,
      "Ġliving": 2322,
      "angu": 2323,
      "Ġbehind": 2324,
      "17": 2325,
      "ze": 2326,
      "roll": 2327,
      "Ġansw": 2328,
      "ĠHis": 2329,
      "Ġaccording": 2330,
      "Ġprovides": 2331,
      "Ġcontinue": 2332,
      "where": 2333,
      "Ġsoon": 2334,
      "icated": 2335,
      "Ġinfl": 2336,
      "minist": 2337,
      "Ġwhite": 2338,
      "Ġwords": 2339,
      "rug": 2340,
      "Ġgra": 2341,
      "Ġproblems": 2342,
      "Ġexperien": 2343,
      "ĠDep": 2344,
      "Ġstaff": 2345,
      "empt": 2346,
      "Ġnothing": 2347,
      "aching": 2348,
      "__": 2349,
      "apt": 2350,
      "Ġcharacter": 2351,
      "eth": 2352,
      "val": 2353,
      "ĠWill": 2354,
      "Ġprofessional": 2355,
      "Ġdeath": 2356,
      "itten": 2357,
      "Ġposition": 2358,
      "ole": 2359,
      "Ġdam": 2360,
      "Ġisn": 2361,
      "Ġinit": 2362,
      "Ġupd": 2363,
      "ibr": 2364,
      "Ġmatter": 2365,
      "Ġaction": 2366,
      "head": 2367,
      "itional": 2368,
      "ables": 2369,
      "Ġbed": 2370,
      "Ġhy": 2371,
      "Ġrepresent": 2372,
      "reme": 2373,
      "ĠPart": 2374,
      "Ġprep": 2375,
      "Ġhon": 2376,
      "ĠGl": 2377,
      "ĠQu": 2378,
      "Ġdeterm": 2379,
      "Ġprovided": 2380,
      "Ġfail": 2381,
      "ules": 2382,
      "Ġassist": 2383,
      "lt": 2384,
      "Ġsize": 2385,
      "ĠSm": 2386,
      "Ġrole": 2387,
      "oe": 2388,
      "Ġground": 2389,
      "Ġfinal": 2390,
      "olution": 2391,
      "ĠPer": 2392,
      "pper": 2393,
      "amer": 2394,
      "ief": 2395,
      "Ġconsum": 2396,
      "Ġsimilar": 2397,
      "nes": 2398,
      "pril": 2399,
      "Ġweeks": 2400,
      "Ġsubject": 2401,
      "ĠTra": 2402,
      "Ġpopular": 2403,
      "obile": 2404,
      "clus": 2405,
      "ĠAmerica": 2406,
      "ĠDr": 2407,
      "Ġimpact": 2408,
      "ival": 2409,
      "ĠAust": 2410,
      "ĠPark": 2411,
      "urance": 2412,
      "Ġproperty": 2413,
      "ĠCenter": 2414,
      "Ġaccept": 2415,
      "Ġroad": 2416,
      "Ġinj": 2417,
      "Ġphone": 2418,
      "Ġswe": 2419,
      "Ġtou": 2420,
      "Ġupon": 2421,
      "Ġconnect": 2422,
      "Ġforward": 2423,
      "Ġannoun": 2424,
      "ĠMark": 2425,
      "ĠDes": 2426,
      "Ġyourself": 2427,
      "Ġtakes": 2428,
      "anc": 2429,
      "ĠOct": 2430,
      "ĠBar": 2431,
      "AC": 2432,
      "Ġsignificant": 2433,
      "ĠAf": 2434,
      "ades": 2435,
      "ĠJust": 2436,
      "Ġnatural": 2437,
      "Ġincludes": 2438,
      "Ġtrue": 2439,
      "ĠAb": 2440,
      "ĠPol": 2441,
      "ees": 2442,
      "ĠTH": 2443,
      "Ġinn": 2444,
      "Ġrecent": 2445,
      "ĠJu": 2446,
      "Ġstat": 2447,
      "Ġlog": 2448,
      "verage": 2449,
      "Al": 2450,
      "RE": 2451,
      "Ġparty": 2452,
      "aily": 2453,
      "oph": 2454,
      "icro": 2455,
      "Ġdate": 2456,
      "iet": 2457,
      "reg": 2458,
      "ĠCor": 2459,
      "Ġselect": 2460,
      "Ġrad": 2461,
      "Ġcook": 2462,
      "uge": 2463,
      "Ġfire": 2464,
      "Ġ2011": 2465,
      "medi": 2466,
      "Ġanim": 2467,
      "Ġoutside": 2468,
      "Ġgeneral": 2469,
      "Ġincrease": 2470,
      "Ġunique": 2471,
      "Ġchanges": 2472,
      "Ġseems": 2473,
      "na": 2474,
      "Ġachie": 2475,
      "Ġrequest": 2476,
      "ĠKe": 2477,
      "Ġassoci": 2478,
      "arget": 2479,
      "Ġgen": 2480,
      "Ġsend": 2481,
      "Ġextra": 2482,
      "overed": 2483,
      "Ġcannot": 2484,
      "Ġsong": 2485,
      "Ġkids": 2486,
      "Ġwide": 2487,
      "Ġknowledge": 2488,
      "ĠDis": 2489,
      "Ġregard": 2490,
      "Ġshows": 2491,
      "astic": 2492,
      "Ġrecogn": 2493,
      "Ġfinancial": 2494,
      "ada": 2495,
      "ĠSome": 2496,
      "Ġlonger": 2497,
      "Ġheld": 2498,
      "Ġofficial": 2499,
      "Ġfig": 2500,
      "Ġeducation": 2501,
      "arter": 2502,
      "Ġrespect": 2503,
      "Ġcreated": 2504,
      "Ġstop": 2505,
      "Ġtit": 2506,
      "Ġarticle": 2507,
      "Ġmodel": 2508,
      "ufact": 2509,
      "Ġsum": 2510,
      "Ġestab": 2511,
      "ĠAug": 2512,
      "Ġattack": 2513,
      "put": 2514,
      "ring": 2515,
      "Ġhtt": 2516,
      "Ġmember": 2517,
      "Ġsafe": 2518,
      "Ġloss": 2519,
      "22": 2520,
      "ĠMarch": 2521,
      "Ġfunction": 2522,
      "Ġcouple": 2523,
      "Ġopp": 2524,
      "ĠAg": 2525,
      "aving": 2526,
      "Ġsystems": 2527,
      "Ġ2010": 2528,
      "Ã©": 2529,
      "idge": 2530,
      "ID": 2531,
      "Ġrunning": 2532,
      "ude": 2533,
      "ĠCounty": 2534,
      "Ġinde": 2535,
      "eter": 2536,
      "Ġspeak": 2537,
      "Ġexam": 2538,
      "60": 2539,
      "Ġleave": 2540,
      "atory": 2541,
      "Ġagree": 2542,
      "Ġtreatment": 2543,
      "Ġdog": 2544,
      "Ġmoment": 2545,
      "ĠAct": 2546,
      "Ġsaw": 2547,
      "Ġcoll": 2548,
      "oura": 2549,
      "anced": 2550,
      "Ġusually": 2551,
      "Ġhit": 2552,
      "Ġfa": 2553,
      "Ġstri": 2554,
      "sc": 2555,
      "ĠPresident": 2556,
      "Ġhigher": 2557,
      "Ġsecurity": 2558,
      "Ġ198": 2559,
      "Ġrate": 2560,
      "Ġcollect": 2561,
      "Ġdesigned": 2562,
      "face": 2563,
      "ana": 2564,
      "Ġsoftware": 2565,
      "Ġplayers": 2566,
      "iter": 2567,
      "Ġskin": 2568,
      "Ġcontrib": 2569,
      "Ġcolor": 2570,
      "ales": 2571,
      "Ġanyone": 2572,
      "amed": 2573,
      "Ġbott": 2574,
      "uary": 2575,
      "Ġbase": 2576,
      "Ġdetails": 2577,
      "Ġopportunity": 2578,
      "ĠJune": 2579,
      "Ġsens": 2580,
      "Ġoptions": 2581,
      "Ġoriginal": 2582,
      "ĠDav": 2583,
      "Ġreading": 2584,
      "Ġill": 2585,
      "hib": 2586,
      "oud": 2587,
      "Ġready": 2588,
      "gu": 2589,
      "Ġdescrib": 2590,
      "aign": 2591,
      "Ġlo": 2592,
      "Ġnorm": 2593,
      "Ġsle": 2594,
      "Ġworth": 2595,
      "erc": 2596,
      "Ġdefin": 2597,
      "Ġwar": 2598,
      "sy": 2599,
      "Ġbox": 2600,
      "Ġthroughout": 2601,
      "ffe": 2602,
      "Ġbeautiful": 2603,
      "Ġgrowth": 2604,
      "fl": 2605,
      "izing": 2606,
      "earch": 2607,
      "ĠOb": 2608,
      "Ġleaders": 2609,
      "Ġpotential": 2610,
      "ĠIm": 2611,
      "ĠHouse": 2612,
      "Ġpaper": 2613,
      "irit": 2614,
      "aced": 2615,
      "Ġlat": 2616,
      "Ġinside": 2617,
      "Ġx": 2618,
      "Ġtable": 2619,
      "Ġreceive": 2620,
      "Ġengine": 2621,
      "Ġnational": 2622,
      "Ġreceived": 2623,
      "ĠStud": 2624,
      "Ġsense": 2625,
      "Ġnetwork": 2626,
      "rem": 2627,
      "ĠDay": 2628,
      "Ġlay": 2629,
      "ĠBy": 2630,
      "Ġneg": 2631,
      "Ġpatients": 2632,
      "ĠWest": 2633,
      "Ġregular": 2634,
      "Ġbooks": 2635,
      "oogle": 2636,
      "rect": 2637,
      "Ġcause": 2638,
      "Ġmedical": 2639,
      "based": 2640,
      "Ġfast": 2641,
      "Ġprint": 2642,
      "iddle": 2643,
      "Ġtotal": 2644,
      "Ġlate": 2645,
      "Ġchoose": 2646,
      "Ġlives": 2647,
      "Ġblood": 2648,
      "Ġexpress": 2649,
      "ese": 2650,
      "Ġemb": 2651,
      "ederal": 2652,
      "Ġdom": 2653,
      "ĠPa": 2654,
      "Ġensure": 2655,
      "Ġetc": 2656,
      "mit": 2657,
      "Ġsales": 2658,
      "Ġrecently": 2659,
      "Ġball": 2660,
      "Ġthemselves": 2661,
      "Ġgoal": 2662,
      "right": 2663,
      "ashing": 2664,
      "Ġprior": 2665,
      "Ġmach": 2666,
      "ĠNow": 2667,
      "Ġcoun": 2668,
      "Ġpark": 2669,
      "Ġlost": 2670,
      "off": 2671,
      "iff": 2672,
      "Ġstra": 2673,
      "ĠSpe": 2674,
      "Ġusers": 2675,
      "Ġapplication": 2676,
      "Ġcomfort": 2677,
      "âĢ¢": 2678,
      "ciety": 2679,
      "ĠApril": 2680,
      "ening": 2681,
      "aining": 2682,
      "Ġhappy": 2683,
      "Ġ,": 2684,
      "Ġformer": 2685,
      "Ġdest": 2686,
      "Ġstruct": 2687,
      "Ġclick": 2688,
      "Ġfit": 2689,
      "Ġdownload": 2690,
      "Ġversion": 2691,
      "iber": 2692,
      "ĠSept": 2693,
      "Ġcourt": 2694,
      "Ġwonder": 2695,
      "bor": 2696,
      "ysis": 2697,
      "Ġ...": 2698,
      "ament": 2699,
      "cast": 2700,
      "Ġpric": 2701,
      "ĠInc": 2702,
      "oes": 2703,
      "like": 2704,
      "cil": 2705,
      "Ġcurrently": 2706,
      "Ġpolicy": 2707,
      "aging": 2708,
      "oke": 2709,
      "Ġimm": 2710,
      "Ġaffect": 2711,
      "Ġcontract": 2712,
      "Ġdeep": 2713,
      "ague": 2714,
      "Ġtown": 2715,
      "Ġep": 2716,
      "Ġdepend": 2717,
      "Ġmass": 2718,
      "istic": 2719,
      "Ġviol": 2720,
      "Ġcareer": 2721,
      "ĠEl": 2722,
      "Ġitself": 2723,
      "Ġnice": 2724,
      "Ġitems": 2725,
      "Ġattend": 2726,
      "Ġhands": 2727,
      "ĠDon": 2728,
      "Ġpolitical": 2729,
      "Ġmorning": 2730,
      "ached": 2731,
      "pri": 2732,
      "Ġpers": 2733,
      "Ġdecision": 2734,
      "ceed": 2735,
      "aturday": 2736,
      "ĠReg": 2737,
      "ham": 2738,
      "artment": 2739,
      "Ġdise": 2740,
      "Ġterms": 2741,
      "Ġobject": 2742,
      "Ġboard": 2743,
      "Ġprivate": 2744,
      "icles": 2745,
      "Ġple": 2746,
      "With": 2747,
      "Ġpractice": 2748,
      "Ġhair": 2749,
      "Ġobs": 2750,
      "ĠHigh": 2751,
      "Ġexact": 2752,
      "adem": 2753,
      "ha": 2754,
      "40": 2755,
      "ournal": 2756,
      "inary": 2757,
      "Ġvia": 2758,
      "ĠArt": 2759,
      "uth": 2760,
      "Ġdeg": 2761,
      "lier": 2762,
      "Ġgoes": 2763,
      "ological": 2764,
      "Ġworked": 2765,
      "Ġadditional": 2766,
      "ground": 2767,
      "21": 2768,
      "Ġut": 2769,
      "ĠHar": 2770,
      "Ġmeeting": 2771,
      "Ġbal": 2772,
      "Ġrights": 2773,
      "ences": 2774,
      "Ġcredit": 2775,
      "Ġprograms": 2776,
      "Ġdrive": 2777,
      "Ġcases": 2778,
      "ek": 2779,
      "hel": 2780,
      "Ġlearning": 2781,
      "Ġquickly": 2782,
      "Ġmother": 2783,
      "irth": 2784,
      "Ġproduction": 2785,
      "atform": 2786,
      "action": 2787,
      "OT": 2788,
      "ĠMore": 2789,
      "Ġblock": 2790,
      "ett": 2791,
      "Ġability": 2792,
      "My": 2793,
      "aby": 2794,
      "Ġincluded": 2795,
      "ĠMich": 2796,
      "Ġstyle": 2797,
      "Ġteac": 2798,
      "Ġprim": 2799,
      "Ġlevels": 2800,
      "ux": 2801,
      "Ġri": 2802,
      "Ġtarget": 2803,
      "Ġcustomer": 2804,
      "Ġcele": 2805,
      "Ġlangu": 2806,
      "Ġcomputer": 2807,
      "OU": 2808,
      "imum": 2809,
      "Ġwall": 2810,
      "Our": 2811,
      "Ġ21": 2812,
      "Ġsat": 2813,
      "Ġplaying": 2814,
      "Ġremember": 2815,
      "oring": 2816,
      "Ġwasn": 2817,
      "ĠJuly": 2818,
      "ession": 2819,
      "Ġ40": 2820,
      "Ġbegan": 2821,
      "Ġ2014": 2822,
      "haps": 2823,
      "airs": 2824,
      "erve": 2825,
      "Ġactivities": 2826,
      "All": 2827,
      "Ġappe": 2828,
      "AM": 2829,
      "ĠWar": 2830,
      "Ġpan": 2831,
      "Ġwoman": 2832,
      "ĠHealth": 2833,
      "rel": 2834,
      "Ġclos": 2835,
      "Ġbecame": 2836,
      "Ġconditions": 2837,
      "Ġcool": 2838,
      "Ġchance": 2839,
      "ny": 2840,
      "wood": 2841,
      "ming": 2842,
      "Ġapproach": 2843,
      "hood": 2844,
      "Ġinvolved": 2845,
      "azing": 2846,
      "Ġcampaign": 2847,
      "itary": 2848,
      "Ġautom": 2849,
      "Ġmyself": 2850,
      "Ġcountries": 2851,
      "ecut": 2852,
      "asons": 2853,
      "ĠPar": 2854,
      "iction": 2855,
      "ĠUs": 2856,
      "Ġsqu": 2857,
      "Ġlegal": 2858,
      "Ġmix": 2859,
      "Ġwritten": 2860,
      "Ġur": 2861,
      "rought": 2862,
      "Ġfight": 2863,
      "ĠWhile": 2864,
      "light": 2865,
      "Ġshall": 2866,
      "ĠFeb": 2867,
      "Ġvict": 2868,
      "Ġsummer": 2869,
      "Ġgrad": 2870,
      "unday": 2871,
      "Ġinstead": 2872,
      "Ġintrodu": 2873,
      "OS": 2874,
      "Ġinsp": 2875,
      "ĠOff": 2876,
      "uses": 2877,
      "ĠChar": 2878,
      "Ġarri": 2879,
      "Ġmanufact": 2880,
      "24": 2881,
      "Ġround": 2882,
      "Ġjud": 2883,
      "Ġlatest": 2884,
      "Ġbuilt": 2885,
      "Ġskills": 2886,
      "Ġ2009": 2887,
      "Ġwrite": 2888,
      "....": 2889,
      "Ġnecessary": 2890,
      "su": 2891,
      "ĠSan": 2892,
      "Ġmatch": 2893,
      "edd": 2894,
      "attle": 2895,
      "ications": 2896,
      "ondon": 2897,
      "Ġeasily": 2898,
      "Ġbur": 2899,
      "ĠAssoci": 2900,
      "atives": 2901,
      "Ġimmedi": 2902,
      "ipment": 2903,
      "ĠEm": 2904,
      "onse": 2905,
      "ĠEnglish": 2906,
      "pose": 2907,
      "Ġcand": 2908,
      "Ġinvestig": 2909,
      "Ġdraw": 2910,
      "str": 2911,
      "ĠFin": 2912,
      "ĠBu": 2913,
      "ĠBro": 2914,
      "'d": 2915,
      "At": 2916,
      "Ġlooks": 2917,
      "ĠSw": 2918,
      "illing": 2919,
      "ĠCour": 2920,
      "Ġdecided": 2921,
      "amb": 2922,
      "ING": 2923,
      "Ġdrug": 2924,
      "ĠTV": 2925,
      "reng": 2926,
      "Ġscreen": 2927,
      "Ġrelease": 2928,
      "Ġ2016": 2929,
      "Ġsurpr": 2930,
      "Ġwrong": 2931,
      "Ġgave": 2932,
      "Ġpresident": 2933,
      "ovember": 2934,
      "Ġones": 2935,
      "Ġrev": 2936,
      "unt": 2937,
      "Ġord": 2938,
      "Ġcas": 2939,
      "ĠOf": 2940,
      "ray": 2941,
      "just": 2942,
      "ĠBrit": 2943,
      "itter": 2944,
      "Ġmention": 2945,
      "Ġemer": 2946,
      "Ġsell": 2947,
      "Ġveh": 2948,
      "Ġstandard": 2949,
      "Ġfresh": 2950,
      "That": 2951,
      "Ġinternational": 2952,
      "fficient": 2953,
      "Ġpred": 2954,
      "Ġweight": 2955,
      "ĠDepartment": 2956,
      "ĠVal": 2957,
      "Ġattention": 2958,
      "itc": 2959,
      "hern": 2960,
      "Ġcy": 2961,
      "ĠInt": 2962,
      "Ġpropos": 2963,
      "ĠHere": 2964,
      "Ġsaf": 2965,
      "Ġbank": 2966,
      "Ġlab": 2967,
      "ought": 2968,
      "Ġsil": 2969,
      "Ġstock": 2970,
      "Ġattempt": 2971,
      "iam": 2972,
      "Ġfelt": 2973,
      "Ġgroups": 2974,
      "Ġlower": 2975,
      "Ġbi": 2976,
      "ĠHer": 2977,
      "Ġexcept": 2978,
      "Ġglobal": 2979,
      "Ġsett": 2980,
      "Sh": 2981,
      "Ġtour": 2982,
      "ĠCalif": 2983,
      "Ġrelated": 2984,
      "Ġsun": 2985,
      "oom": 2986,
      "Ġsus": 2987,
      "Ġhol": 2988,
      "Ġuser": 2989,
      "Ġideas": 2990,
      "itte": 2991,
      "aught": 2992,
      "Ġleading": 2993,
      "Ġapply": 2994,
      "Ġeyes": 2995,
      "ĠMon": 2996,
      "iple": 2997,
      "onday": 2998,
      "ester": 2999,
      "Ġfavorite": 3000,
      "Ġmovie": 3001,
      "ĠAustral": 3002,
      "Ph": 3003,
      "erous": 3004,
      "mon": 3005,
      "Ġstudent": 3006,
      "kend": 3007,
      "ĠFriday": 3008,
      "Ġhear": 3009,
      "alt": 3010,
      "ĠMus": 3011,
      "ĠRed": 3012,
      "Ġencoura": 3013,
      "Ġsaying": 3014,
      "Ġprojects": 3015,
      "Ġchoice": 3016,
      "rote": 3017,
      "ĠPat": 3018,
      "ald": 3019,
      "ris": 3020,
      "Ġhuge": 3021,
      "Ġclients": 3022,
      "Ġaverage": 3023,
      "ests": 3024,
      "ĠAfric": 3025,
      "Ġimage": 3026,
      "bit": 3027,
      "Ġfile": 3028,
      "Ġhor": 3029,
      "Ġsn": 3030,
      "ĠAugust": 3031,
      "Ġintegr": 3032,
      "Ġcosts": 3033,
      "Ġallows": 3034,
      "ivity": 3035,
      "Ġhimself": 3036,
      "23": 3037,
      "Ġaw": 3038,
      "Ġtouch": 3039,
      "Ġdocument": 3040,
      "oul": 3041,
      "ĠBlack": 3042,
      "Ġeffective": 3043,
      "Ġ23": 3044,
      "Ġplatform": 3045,
      "Ġresources": 3046,
      "Ġ2008": 3047,
      "Ġdefe": 3048,
      "Ġmodern": 3049,
      "ĠGerm": 3050,
      "Ġdisplay": 3051,
      "ĠFace": 3052,
      "Ġstru": 3053,
      "Ġpolice": 3054,
      "press": 3055,
      "idered": 3056,
      "Be": 3057,
      "aves": 3058,
      "Ġreported": 3059,
      "avy": 3060,
      "ĠSci": 3061,
      "Ġsold": 3062,
      "Ġgets": 3063,
      "Ġsepar": 3064,
      "verse": 3065,
      "Ġparts": 3066,
      "cription": 3067,
      "Ġmid": 3068,
      "Ġtrust": 3069,
      "Ġboy": 3070,
      "ule": 3071,
      "EC": 3072,
      "Ġmarketing": 3073,
      "Ġparents": 3074,
      "Ġbud": 3075,
      "enty": 3076,
      "cious": 3077,
      "Ġcross": 3078,
      "ky": 3079,
      "Ġfair": 3080,
      "aly": 3081,
      "ornia": 3082,
      "Cl": 3083,
      "Ġadminist": 3084,
      "70": 3085,
      "Ġdiv": 3086,
      "Ġvariety": 3087,
      "Ġrout": 3088,
      "\".": 3089,
      "Ġ2015": 3090,
      "Ġplayed": 3091,
      "One": 3092,
      "Ġplans": 3093,
      "Ġpull": 3094,
      "key": 3095,
      "Ġfeed": 3096,
      "vey": 3097,
      "aste": 3098,
      "80": 3099,
      "Ġanswer": 3100,
      "Ġnature": 3101,
      "ĠJanuary": 3102,
      "hold": 3103,
      "ĠSen": 3104,
      "ĠOctober": 3105,
      "Ġled": 3106,
      "Ġknew": 3107,
      "Ġthinking": 3108,
      "Ġcenter": 3109,
      "ville": 3110,
      "sec": 3111,
      "aged": 3112,
      "ĠSaturday": 3113,
      "Ġdead": 3114,
      "ĠAdd": 3115,
      "Ġdaily": 3116,
      "Ġexpected": 3117,
      "cip": 3118,
      "ĠNews": 3119,
      "Ġpiece": 3120,
      "ĠSch": 3121,
      "iring": 3122,
      "ĠFrom": 3123,
      "Ġdrink": 3124,
      "wise": 3125,
      "ns": 3126,
      "Ġgives": 3127,
      "Ġ22": 3128,
      "Ġcomment": 3129,
      "usiness": 3130,
      "ĠThen": 3131,
      "Ġinteresting": 3132,
      "Ġgiving": 3133,
      "ĠLondon": 3134,
      "Ġdark": 3135,
      "Ġheard": 3136,
      "aker": 3137,
      "OM": 3138,
      "Ġdepart": 3139,
      "apan": 3140,
      "ĠAc": 3141,
      "ĠSer": 3142,
      "ET": 3143,
      "ension": 3144,
      "enge": 3145,
      "ĠSeptember": 3146,
      "Ġcompletely": 3147,
      "cember": 3148,
      "Ġsource": 3149,
      "Ġsafety": 3150,
      "Ġoption": 3151,
      "ĠUK": 3152,
      "No": 3153,
      "Ġtele": 3154,
      "Ġconduct": 3155,
      "Ġpurchase": 3156,
      "Ġprevent": 3157,
      "pite": 3158,
      "isc": 3159,
      "iding": 3160,
      "Ġexcell": 3161,
      "Ġdigital": 3162,
      "Ġpositive": 3163,
      "itute": 3164,
      "Ġ2017": 3165,
      "Ġenter": 3166,
      "uel": 3167,
      "Ġtal": 3168,
      "Ġstreng": 3169,
      "mission": 3170,
      "Ġdecl": 3171,
      "Ġgreen": 3172,
      "Ġdoor": 3173,
      "ĠInternational": 3174,
      "Ġpath": 3175,
      "Ġsection": 3176,
      "error": 3177,
      "Ġbenefits": 3178,
      "itution": 3179,
      "Ġarch": 3180,
      "ĠDem": 3181,
      "Ġcat": 3182,
      "ishing": 3183,
      "ocr": 3184,
      "Ġchalleng": 3185,
      "Ġpublished": 3186,
      "ĠNet": 3187,
      "Ġtypes": 3188,
      "After": 3189,
      "Ġstarting": 3190,
      "aries": 3191,
      "ĠAut": 3192,
      "iles": 3193,
      "Ġinflu": 3194,
      "Ġsave": 3195,
      "Ġlif": 3196,
      "Ġdetail": 3197,
      "isions": 3198,
      "ption": 3199,
      "ashington": 3200,
      "ilies": 3201,
      "Ġstates": 3202,
      "king": 3203,
      "ĠSunday": 3204,
      "Ġlocated": 3205,
      "Ġvac": 3206,
      "ma": 3207,
      "Ġnation": 3208,
      "gar": 3209,
      "mercial": 3210,
      "Ġspeed": 3211,
      "Ġconsidered": 3212,
      "omen": 3213,
      "IL": 3214,
      "itation": 3215,
      "Ġslow": 3216,
      "Ġbrought": 3217,
      "ĠGoogle": 3218,
      "ĠCons": 3219,
      "AP": 3220,
      "ĠNovember": 3221,
      "ĠJe": 3222,
      "ospital": 3223,
      "Ġsites": 3224,
      "ened": 3225,
      "sp": 3226,
      "Ġsometimes": 3227,
      "Ġnote": 3228,
      "Ġvot": 3229,
      "ĠDirect": 3230,
      "zy": 3231,
      "yond": 3232,
      "imately": 3233,
      "Ġflow": 3234,
      "Ġprin": 3235,
      "Ġdirectly": 3236,
      "Ġproviding": 3237,
      "Ġorganization": 3238,
      "ael": 3239,
      "orge": 3240,
      "www": 3241,
      "Ġamazing": 3242,
      "Ġinterview": 3243,
      "Ġsche": 3244,
      "board": 3245,
      "Ġlocation": 3246,
      "Ġwood": 3247,
      "Ġfell": 3248,
      "Ġsituation": 3249,
      "Ġdevice": 3250,
      "Ġreleased": 3251,
      "rs": 3252,
      "Ġlic": 3253,
      "ivil": 3254,
      "Ġplant": 3255,
      "Ġbehav": 3256,
      "Ġsubs": 3257,
      "ĠCalifornia": 3258,
      "99": 3259,
      "Ġcollection": 3260,
      "Ġrock": 3261,
      "Ġinsurance": 3262,
      "urt": 3263,
      "Ġcopy": 3264,
      "Ġeconomic": 3265,
      "Ġavoid": 3266,
      "cies": 3267,
      "Ġstuff": 3268,
      "Ġextreme": 3269,
      "pre": 3270,
      "band": 3271,
      "idents": 3272,
      "Ġmessage": 3273,
      "Ġcamer": 3274,
      "Ġmultiple": 3275,
      "Ġconsist": 3276,
      "ĠâĢ¦": 3277,
      "ĠRead": 3278,
      "ica": 3279,
      "Ġbroad": 3280,
      "Ġhighly": 3281,
      "Ġpen": 3282,
      "ĠGener": 3283,
      "Ġcondition": 3284,
      "Ġfeature": 3285,
      "Ġstories": 3286,
      "Ġ28": 3287,
      "ength": 3288,
      "ford": 3289,
      "Ġconvers": 3290,
      "ibly": 3291,
      "ĠStreet": 3292,
      "aint": 3293,
      "ĠAcc": 3294,
      "erved": 3295,
      "agn": 3296,
      "Ġqual": 3297,
      "Ġoffe": 3298,
      "Ġplayer": 3299,
      "Ġresponse": 3300,
      "Ġfather": 3301,
      "ĠAre": 3302,
      "Ġlooked": 3303,
      "Ġturned": 3304,
      "ĠCommun": 3305,
      "EL": 3306,
      "ursday": 3307,
      "aches": 3308,
      "Ġtowards": 3309,
      "ari": 3310,
      "ruary": 3311,
      "name": 3312,
      "Ġreach": 3313,
      "Ġimplement": 3314,
      "Ġanalysis": 3315,
      "Ġweekend": 3316,
      "arily": 3317,
      "ĠSim": 3318,
      "Ġwarm": 3319,
      "Ġcup": 3320,
      "ĠFacebook": 3321,
      "Ġlimited": 3322,
      "Ġcelebr": 3323,
      "Ġhour": 3324,
      "add": 3325,
      "Ġrestaur": 3326,
      "Ġindividuals": 3327,
      "Ġson": 3328,
      "ĠFirst": 3329,
      "Ġfine": 3330,
      "sych": 3331,
      "ĠPlease": 3332,
      "ancy": 3333,
      "ĠPost": 3334,
      "ĠWind": 3335,
      "Ġprogress": 3336,
      "Ġphysical": 3337,
      "Ġequipment": 3338,
      "Ġfloor": 3339,
      "Ġlanguage": 3340,
      "Ġlack": 3341,
      "ara": 3342,
      "ĠUp": 3343,
      "Ġeffects": 3344,
      "Ġadult": 3345,
      "Ġspent": 3346,
      "Ġeffort": 3347,
      "Ġtools": 3348,
      "):": 3349,
      "Ġconcept": 3350,
      "uesday": 3351,
      "col": 3352,
      "Ġreve": 3353,
      "Ġ26": 3354,
      "ednes": 3355,
      "ĠAir": 3356,
      "rences": 3357,
      "Ġdream": 3358,
      "ĠLa": 3359,
      "ĠAN": 3360,
      "Ġadvant": 3361,
      "ĠKing": 3362,
      "Ġcapt": 3363,
      "Ġdisease": 3364,
      "Ġwrote": 3365,
      "Ġfix": 3366,
      "Ġfarm": 3367,
      "Ġmobile": 3368,
      "Ġimag": 3369,
      "Ġband": 3370,
      "Ġregul": 3371,
      "Ġfirm": 3372,
      "more": 3373,
      "Ġhelps": 3374,
      "Ġ*": 3375,
      "Ġnearly": 3376,
      "raft": 3377,
      "aughter": 3378,
      "Ġaware": 3379,
      "ida": 3380,
      "ography": 3381,
      "ĠObama": 3382,
      "rast": 3383,
      "ram": 3384,
      "field": 3385,
      "Ġorganiz": 3386,
      "Ġ60": 3387,
      "Ġhttp": 3388,
      "Ġplaces": 3389,
      "Ġcomplex": 3390,
      "Ġpartners": 3391,
      "Ġregist": 3392,
      "ĠWashington": 3393,
      "âĢĿ.": 3394,
      "Ġclub": 3395,
      "Ġrace": 3396,
      "Ġmaterials": 3397,
      "Ġbirth": 3398,
      "unk": 3399,
      "They": 3400,
      "Ġcertainly": 3401,
      "Ġneigh": 3402,
      "Ġdress": 3403,
      "itely": 3404,
      "Pro": 3405,
      "ĠChina": 3406,
      "Ġthreat": 3407,
      "ĠPre": 3408,
      "Ġsubst": 3409,
      "uate": 3410,
      "Ġsen": 3411,
      "Ġfat": 3412,
      "Ġ+": 3413,
      "nds": 3414,
      "Ġmount": 3415,
      "Ġcollege": 3416,
      "Ġdro": 3417,
      "Ġmis": 3418,
      "Ġgrowing": 3419,
      "Ġtick": 3420,
      "Ġemployees": 3421,
      "uted": 3422,
      "Ġhistor": 3423,
      "Ġevidence": 3424,
      "ittee": 3425,
      "Ġphotos": 3426,
      "ĠJapan": 3427,
      "Ġdistrib": 3428,
      "Ġcode": 3429,
      "ĠService": 3430,
      "zz": 3431,
      "ĠCollege": 3432,
      "ĠDecember": 3433,
      "Ġcarry": 3434,
      "bur": 3435,
      "Ġge": 3436,
      "Ġten": 3437,
      "iment": 3438,
      "Ġscore": 3439,
      "Ġsolution": 3440,
      "vin": 3441,
      "ĠEvery": 3442,
      "Ġcorrect": 3443,
      "izes": 3444,
      "Ġinnov": 3445,
      "opping": 3446,
      "Ġexerc": 3447,
      "EO": 3448,
      "olute": 3449,
      "Ġult": 3450,
      "sequ": 3451,
      "antly": 3452,
      "Ġbusinesses": 3453,
      "ran": 3454,
      "Ġtried": 3455,
      "Ġgold": 3456,
      "Ġfinally": 3457,
      "Ġeye": 3458,
      "Ġbeginning": 3459,
      "ednesday": 3460,
      "Ġdating": 3461,
      "Ġkn": 3462,
      "Ġtrip": 3463,
      "ault": 3464,
      "Ġcirc": 3465,
      "ION": 3466,
      "Ġeat": 3467,
      "Ġded": 3468,
      "ĠWell": 3469,
      "Ġactivity": 3470,
      "itchen": 3471,
      "Ġrespond": 3472,
      "Ġsuccessful": 3473,
      "ĠDavid": 3474,
      "ĠIndia": 3475,
      "Ġtemper": 3476,
      "Ġ27": 3477,
      "ĠRepublic": 3478,
      "Ġfully": 3479,
      "ĠCoun": 3480,
      "ĠLaw": 3481,
      "Ġsort": 3482,
      "Ġparticularly": 3483,
      "ĠOut": 3484,
      "Ġdemand": 3485,
      "ares": 3486,
      "Ġexpert": 3487,
      "ipping": 3488,
      "Ġwants": 3489,
      "Ġachieve": 3490,
      "bl": 3491,
      "Ġdeveloped": 3492,
      "bum": 3493,
      "uk": 3494,
      "Ex": 3495,
      "BC": 3496,
      "ĠMonday": 3497,
      "Ġshot": 3498,
      "Ġfeeling": 3499,
      "ĠEast": 3500,
      "Ġspot": 3501,
      "Ġculture": 3502,
      "Ġdifference": 3503,
      "Ġtraditional": 3504,
      "Ġdry": 3505,
      "ruit": 3506,
      "Ġaltern": 3507,
      "Ġoccur": 3508,
      "Ġbra": 3509,
      "ĠII": 3510,
      "oday": 3511,
      "itable": 3512,
      "Ġprevious": 3513,
      "Ġindepend": 3514,
      "Ġwife": 3515,
      "body": 3516,
      "Ġmat": 3517,
      "Ġthous": 3518,
      "arden": 3519,
      "ĠGroup": 3520,
      "ĠFree": 3521,
      "Ġspirit": 3522,
      "ords": 3523,
      "Ġinterested": 3524,
      "vant": 3525,
      "?âĢĿ": 3526,
      "oms": 3527,
      "Ġwish": 3528,
      "down": 3529,
      "Ġwhose": 3530,
      "Ġassess": 3531,
      "ĠJes": 3532,
      "wide": 3533,
      "Ġdirector": 3534,
      "Ġexactly": 3535,
      "Ġpromot": 3536,
      "Ġstress": 3537,
      "het": 3538,
      "Ġsleep": 3539,
      "Ġshoot": 3540,
      "ags": 3541,
      "Ġfamilies": 3542,
      "mitted": 3543,
      "omb": 3544,
      "Ġmaintain": 3545,
      "Ġpaid": 3546,
      "ĠMost": 3547,
      "Ġstage": 3548,
      "Ġimages": 3549,
      "vest": 3550,
      "reed": 3551,
      "Ġaccom": 3552,
      "Ġfeet": 3553,
      "ĠWhite": 3554,
      "rench": 3555,
      "Ġstraight": 3556,
      "aling": 3557,
      "Ġgoals": 3558,
      "ĠCourt": 3559,
      "ls": 3560,
      "arant": 3561,
      "oming": 3562,
      "Ġappl": 3563,
      "ims": 3564,
      "Ġplanning": 3565,
      "Ġ2007": 3566,
      "Ġmoving": 3567,
      "PS": 3568,
      "Ġ2018": 3569,
      "Ġalone": 3570,
      "Ġreports": 3571,
      "Ġheat": 3572,
      "wor": 3573,
      "45": 3574,
      "ĠWeb": 3575,
      "Ġmaybe": 3576,
      "Ġmilitary": 3577,
      "mark": 3578,
      "Ġtalking": 3579,
      "ani": 3580,
      "Ġfear": 3581,
      "itiz": 3582,
      "asc": 3583,
      "ying": 3584,
      "vis": 3585,
      "Ġpurpose": 3586,
      "ounds": 3587,
      "Ġter": 3588,
      "hest": 3589,
      "ronic": 3590,
      "ĠIN": 3591,
      "rows": 3592,
      "Ġbaby": 3593,
      "Ġearlier": 3594,
      "Ġanaly": 3595,
      "ĠTechn": 3596,
      "atever": 3597,
      "Ġdemon": 3598,
      "mas": 3599,
      "Ġcreating": 3600,
      "lin": 3601,
      "Ġprices": 3602,
      "35": 3603,
      "ager": 3604,
      "Ġpressure": 3605,
      "oly": 3606,
      "Ġprem": 3607,
      "Ġteams": 3608,
      "ĠTHE": 3609,
      "duc": 3610,
      "Ġseven": 3611,
      "Ġhop": 3612,
      "Ġappropri": 3613,
      "Ġwait": 3614,
      "Ġopportunities": 3615,
      "Ġtitle": 3616,
      "Ġver": 3617,
      "Ġfans": 3618,
      "Ġregion": 3619,
      "ĠPaul": 3620,
      "Ġscient": 3621,
      "Ġwel": 3622,
      "Ġdeliver": 3623,
      "Ġannounced": 3624,
      "Ġinform": 3625,
      "venue": 3626,
      "Ġconsult": 3627,
      "rig": 3628,
      "Ġcancer": 3629,
      "Ġcharge": 3630,
      "ĠPM": 3631,
      "estern": 3632,
      "ibrary": 3633,
      "undred": 3634,
      "ĠMor": 3635,
      "Ġdoub": 3636,
      "imin": 3637,
      "Ġhous": 3638,
      "ĠRuss": 3639,
      "ĠEven": 3640,
      "Ġschools": 3641,
      "rial": 3642,
      "chan": 3643,
      "ategy": 3644,
      "Ġ=": 3645,
      "Ġdire": 3646,
      "Ġdoll": 3647,
      "ĠProf": 3648,
      "Ġpicture": 3649,
      "Ġrent": 3650,
      "ĠAM": 3651,
      "Ġuses": 3652,
      "Ġincreased": 3653,
      "Ġtur": 3654,
      "rael": 3655,
      "amm": 3656,
      "Ġimpress": 3657,
      "Ġeight": 3658,
      "example": 3659,
      "Ġshown": 3660,
      "ĠEar": 3661,
      "Ġexcellent": 3662,
      "Ġhealthy": 3663,
      "Ġroll": 3664,
      "Ġstatement": 3665,
      "Ġrules": 3666,
      "orage": 3667,
      "Ġmeaning": 3668,
      "Here": 3669,
      "Ġunderstanding": 3670,
      "ils": 3671,
      "Ġserious": 3672,
      "OL": 3673,
      "Ġbillion": 3674,
      "ashion": 3675,
      "set": 3676,
      "Ġquarter": 3677,
      "Ġsolutions": 3678,
      "Ġer": 3679,
      "Ġrelig": 3680,
      "Ġremain": 3681,
      "AD": 3682,
      "Ġcorpor": 3683,
      "She": 3684,
      "ĠPal": 3685,
      "Ġinstru": 3686,
      "Ġproced": 3687,
      "Ġtrade": 3688,
      "By": 3689,
      "pm": 3690,
      "order": 3691,
      "ancing": 3692,
      "Ġnormal": 3693,
      "cks": 3694,
      "aled": 3695,
      "ĠGreat": 3696,
      "Ġcert": 3697,
      "ĠFebruary": 3698,
      "Ġemot": 3699,
      "inner": 3700,
      "Ġvoice": 3701,
      "inger": 3702,
      "ĠMet": 3703,
      "ĠRom": 3704,
      "Ġbeyond": 3705,
      "ĠProgram": 3706,
      "Ġpattern": 3707,
      "Ġallowed": 3708,
      "Ġsmart": 3709,
      "Ġserve": 3710,
      "Ġscience": 3711,
      "Ġcateg": 3712,
      "Ġopin": 3713,
      "Ġnumbers": 3714,
      "ĠBusiness": 3715,
      "Ġacqu": 3716,
      "Ġrequirements": 3717,
      "Ġfrequ": 3718,
      "Ġoverall": 3719,
      "Ġgrand": 3720,
      "Ġalthough": 3721,
      "Ġapplications": 3722,
      "Ġglass": 3723,
      "iant": 3724,
      "pen": 3725,
      "Ġbenefit": 3726,
      "que": 3727,
      "isl": 3728,
      "Ġstrugg": 3729,
      "place": 3730,
      "Ġchanged": 3731,
      "ĠAlso": 3732,
      "Ġcouldn": 3733,
      "Ġcapital": 3734,
      "Ġgas": 3735,
      "dom": 3736,
      "Ġextend": 3737,
      "Ġund": 3738,
      "ĠGreen": 3739,
      "Ġloved": 3740,
      "ube": 3741,
      "Ġmiddle": 3742,
      "Ġfederal": 3743,
      "Ġstudies": 3744,
      "Ġsurv": 3745,
      "ĠSystem": 3746,
      "Ġincreasing": 3747,
      "Ġdevices": 3748,
      "Ġbudget": 3749,
      "Ġcomments": 3750,
      "olf": 3751,
      "Ġbill": 3752,
      "anch": 3753,
      "gen": 3754,
      "New": 3755,
      "Ġfem": 3756,
      "ech": 3757,
      "change": 3758,
      "force": 3759,
      "27": 3760,
      "vision": 3761,
      "isf": 3762,
      "Ġpoor": 3763,
      "Ġapart": 3764,
      "icate": 3765,
      "etic": 3766,
      "ĠJack": 3767,
      "Ġliter": 3768,
      "Ġhappened": 3769,
      "Ġrates": 3770,
      "Is": 3771,
      "well": 3772,
      "Ġinvestment": 3773,
      "mp": 3774,
      "ĠInternet": 3775,
      "ban": 3776,
      "ĠTrans": 3777,
      "Ġ197": 3778,
      "Ġcandid": 3779,
      "nded": 3780,
      "ecutive": 3781,
      "cause": 3782,
      "Ġload": 3783,
      "Ġden": 3784,
      "Ġmax": 3785,
      "Ġaward": 3786,
      "ĠAssociation": 3787,
      "Ġreduce": 3788,
      "Ġforce": 3789,
      "ĠÂ£": 3790,
      "Ġmeasure": 3791,
      "Ġ29": 3792,
      "Ġadvice": 3793,
      "Ġcommercial": 3794,
      "Ġimmediately": 3795,
      "ĠServices": 3796,
      "ĠCanada": 3797,
      "Ġble": 3798,
      "ously": 3799,
      "ĠIndian": 3800,
      "Un": 3801,
      "Ġmachine": 3802,
      "arc": 3803,
      "Ġpatient": 3804,
      "Ġresponsible": 3805,
      "IG": 3806,
      "Ġlik": 3807,
      "26": 3808,
      "Ġjobs": 3809,
      "iance": 3810,
      "Ġadvert": 3811,
      "ago": 3812,
      "ooth": 3813,
      "Ġmiles": 3814,
      "iable": 3815,
      "Ġconstruction": 3816,
      "Ġchurch": 3817,
      "DA": 3818,
      "Ġreasons": 3819,
      "ĠThursday": 3820,
      "Ġcold": 3821,
      "Ġstrateg": 3822,
      "De": 3823,
      "erry": 3824,
      "Ġgone": 3825,
      "Ġshop": 3826,
      "Ġcontain": 3827,
      "Ġowners": 3828,
      "Ġoffered": 3829,
      "ĠHome": 3830,
      "Ġpet": 3831,
      "ĠLet": 3832,
      "Ġenh": 3833,
      "Now": 3834,
      "ĠIS": 3835,
      "Ġalbum": 3836,
      "28": 3837,
      "Ġwww": 3838,
      "Ġperhaps": 3839,
      "lying": 3840,
      "Ġtruly": 3841,
      "Ġahead": 3842,
      "ĠAss": 3843,
      "Ġabsolute": 3844,
      "reci": 3845,
      "Ġclin": 3846,
      "Ġcru": 3847,
      "see": 3848,
      "iling": 3849,
      "Ġchallenge": 3850,
      "While": 3851,
      "Ġdefinitely": 3852,
      "ĠOther": 3853,
      "ĠBoard": 3854,
      "ĠCong": 3855,
      "house": 3856,
      "Ġaspect": 3857,
      "ĠTuesday": 3858,
      "Ġgreater": 3859,
      "Ġsale": 3860,
      "Ġassociated": 3861,
      "Ġdegree": 3862,
      "ĠTex": 3863,
      "Ġhelped": 3864,
      "ĠIsrael": 3865,
      "ĠInter": 3866,
      "Ġbasis": 3867,
      "Ġletter": 3868,
      "ĠJesus": 3869,
      "Ġnut": 3870,
      "ĠGet": 3871,
      "Ġreflect": 3872,
      "ĠFe": 3873,
      "rief": 3874,
      "Ġactive": 3875,
      "Ġhundred": 3876,
      "Ġannual": 3877,
      "ties": 3878,
      "Ġtrou": 3879,
      "Ġnamed": 3880,
      "Ġguide": 3881,
      "Ġdamage": 3882,
      "iny": 3883,
      "Ġfra": 3884,
      "Ġessential": 3885,
      "Ġ2019": 3886,
      "ĠBook": 3887,
      "apter": 3888,
      "Ġspread": 3889,
      "Ġfollowed": 3890,
      "Ġprefer": 3891,
      "Ġsociety": 3892,
      "Don": 3893,
      "akers": 3894,
      "care": 3895,
      "Ġmoved": 3896,
      "Ġdang": 3897,
      "Ġhus": 3898,
      "Ġ2006": 3899,
      "Ġproduce": 3900,
      "100": 3901,
      "Ġsust": 3902,
      "Ġguy": 3903,
      "Ġpages": 3904,
      "Ġblue": 3905,
      "Ġpowerful": 3906,
      "Ġlargest": 3907,
      "ĠResearch": 3908,
      "Ġwild": 3909,
      "Ġchem": 3910,
      "ĠMod": 3911,
      "ĠAnge": 3912,
      "Ġpow": 3913,
      "istics": 3914,
      "olic": 3915,
      "Ġdelivery": 3916,
      "ico": 3917,
      "ĠDist": 3918,
      "Ġstar": 3919,
      "bed": 3920,
      "rey": 3921,
      "Ġjoin": 3922,
      "ampions": 3923,
      "LE": 3924,
      "ĠHall": 3925,
      "Ġgirls": 3926,
      "orrow": 3927,
      "Ġmer": 3928,
      "Ġslight": 3929,
      "Ġphoto": 3930,
      "Ġpopulation": 3931,
      "ĠEuropean": 3932,
      "leg": 3933,
      "Ġbottom": 3934,
      "coming": 3935,
      "Ġing": 3936,
      "ĠAnt": 3937,
      "Ġaren": 3938,
      "Ġbrother": 3939,
      "Ġorigin": 3940,
      "ulated": 3941,
      "osing": 3942,
      "Ġdouble": 3943,
      "Com": 3944,
      "Ġlines": 3945,
      "Ġefforts": 3946,
      "Ġsurround": 3947,
      "Ġeconomy": 3948,
      "ffee": 3949,
      "Ġnove": 3950,
      "ĠSl": 3951,
      "useum": 3952,
      "Ġprofession": 3953,
      "Ġaccur": 3954,
      "ĠSuper": 3955,
      "Ġnotice": 3956,
      "ĠWednesday": 3957,
      "icks": 3958,
      "ĠDel": 3959,
      "Ġopening": 3960,
      "Ġfaith": 3961,
      "ulf": 3962,
      "Ġeval": 3963,
      "Ġsports": 3964,
      "ĠPort": 3965,
      "ses": 3966,
      "Ġborn": 3967,
      "Ġbrain": 3968,
      "Ġcompared": 3969,
      "ĠGold": 3970,
      "Ġgar": 3971,
      "ado": 3972,
      "ĠJames": 3973,
      "Ġeasier": 3974,
      "itude": 3975,
      "ĠCouncil": 3976,
      "Ġweather": 3977,
      "Ġoffering": 3978,
      "ĠYear": 3979,
      "ĠBritish": 3980,
      "Ġbreat": 3981,
      "amic": 3982,
      "Ġfinished": 3983,
      "ĠFlor": 3984,
      "pa": 3985,
      "istry": 3986,
      "IP": 3987,
      "Ġbasic": 3988,
      "Ġfinish": 3989,
      "ĠMichael": 3990,
      "ĠBra": 3991,
      "Ġpros": 3992,
      "ĠRet": 3993,
      "rupt": 3994,
      "ST": 3995,
      "Ġserved": 3996,
      "29": 3997,
      "Ġclient": 3998,
      "Ġadvantage": 3999,
      "Ġstrategy": 4000,
      "Ġcry": 4001,
      "ĠCle": 4002,
      "Ġdoctor": 4003,
      "hips": 4004,
      "ĠPlay": 4005,
      "Ġ2020": 4006,
      "Ġsteps": 4007,
      "ĠMany": 4008,
      "Ġclot": 4009,
      "mat": 4010,
      "Ġadjust": 4011,
      "Ġmovement": 4012,
      "Ġwonderful": 4013,
      "ĠChristian": 4014,
      "Ġwat": 4015,
      "ĠEduc": 4016,
      "Ġguys": 4017,
      "Ġpartner": 4018,
      "ĠOffice": 4019,
      "Ġfab": 4020,
      "atively": 4021,
      "Ġstructure": 4022,
      "OW": 4023,
      "These": 4024,
      "Ġoccas": 4025,
      "ĠRich": 4026,
      "Ġsetting": 4027,
      "Ġcamera": 4028,
      "Ġlots": 4029,
      "ĠChristmas": 4030,
      "Ġcash": 4031,
      "ustr": 4032,
      "Ġcoffee": 4033,
      "ĠMac": 4034,
      "ĠLord": 4035,
      "ĠAny": 4036,
      "Ġworkers": 4037,
      "Ġkept": 4038,
      "Ġobv": 4039,
      "Ġlength": 4040,
      "Ġsweet": 4041,
      "ker": 4042,
      "33": 4043,
      "Ġtruth": 4044,
      "Ġregarding": 4045,
      "IV": 4046,
      "ĠGood": 4047,
      "ĠSpr": 4048,
      "bon": 4049,
      "ĠReview": 4050,
      "amin": 4051,
      "Ġappreci": 4052,
      "Ġcontinued": 4053,
      "ourney": 4054,
      "Ġframe": 4055,
      "ĠBill": 4056,
      "Ġreb": 4057,
      "term": 4058,
      "Ġbeg": 4059,
      "Ġcast": 4060,
      "Ġleader": 4061,
      "Ġhelping": 4062,
      "Ġpeace": 4063,
      "udd": 4064,
      "Ġincome": 4065,
      "Ġstrength": 4066,
      "Ġpassed": 4067,
      "Ġsurface": 4068,
      "Ġreality": 4069,
      "Ġwouldn": 4070,
      "Ġtransfer": 4071,
      "ifying": 4072,
      "ĠOver": 4073,
      "Ġexisting": 4074,
      "ken": 4075,
      "Ġsuff": 4076,
      "Ġruns": 4077,
      "Ġconc": 4078,
      "Ġexpand": 4079,
      "ĠPC": 4080,
      "icip": 4081,
      "ĠTexas": 4082,
      "ports": 4083,
      "Ġpictures": 4084,
      "Ġsupply": 4085,
      "Ġcompon": 4086,
      "ĠRem": 4087,
      "Ġlearned": 4088,
      "ĠRock": 4089,
      "ĠBest": 4090,
      "Ġappropriate": 4091,
      "unte": 4092,
      "Ġcharacters": 4093,
      "Ġreplace": 4094,
      "Ġfigure": 4095,
      "ero": 4096,
      "Ġwear": 4097,
      "ĠOF": 4098,
      "edding": 4099,
      "Ġattract": 4100,
      "Ġdied": 4101,
      "90": 4102,
      "ologies": 4103,
      "ander": 4104,
      "Se": 4105,
      "Ġrepe": 4106,
      "ĠPri": 4107,
      "Ġanti": 4108,
      "Ġiniti": 4109,
      "Ġtrain": 4110,
      "hens": 4111,
      "rapy": 4112,
      "ĠIT": 4113,
      "Ġgun": 4114,
      "Ġesc": 4115,
      "Ġlarger": 4116,
      "asy": 4117,
      "igned": 4118,
      "Ġinternet": 4119,
      "Ġvehicle": 4120,
      "Ġprotection": 4121,
      "icine": 4122,
      "Ġcritical": 4123,
      "using": 4124,
      "Ġcalls": 4125,
      "Ġkitchen": 4126,
      "itect": 4127,
      "Ġcompleted": 4128,
      "OV": 4129,
      "Ġhom": 4130,
      "Ġcreative": 4131,
      "ĠMarket": 4132,
      "oving": 4133,
      "anging": 4134,
      "Ġir": 4135,
      "ĠSur": 4136,
      "ĠBel": 4137,
      "ĠRec": 4138,
      "ipped": 4139,
      "Ġfan": 4140,
      "Ġtend": 4141,
      "ĠGeneral": 4142,
      "ĠWhy": 4143,
      "TH": 4144,
      "soft": 4145,
      "Ġcentury": 4146,
      "Ġplus": 4147,
      "Ġseeing": 4148,
      "imal": 4149,
      "Ġaudience": 4150,
      "Ġappoint": 4151,
      "lands": 4152,
      "Ġvirt": 4153,
      "friend": 4154,
      "ĠTy": 4155,
      "ĠBig": 4156,
      "Ġgenerally": 4157,
      "Ġessay": 4158,
      "Ġgift": 4159,
      "ĠWork": 4160,
      "ĠFrench": 4161,
      "65": 4162,
      "Ġhusband": 4163,
      "Ġbackground": 4164,
      "ĠAnn": 4165,
      "Ġdisapp": 4166,
      "eria": 4167,
      "?\"": 4168,
      "Ġfant": 4169,
      "Ġsatisf": 4170,
      "Ġcivil": 4171,
      "ston": 4172,
      "eds": 4173,
      "acity": 4174,
      "Ġgovern": 4175,
      "Ġentertain": 4176,
      "ij": 4177,
      "Ġcells": 4178,
      "Ġmechan": 4179,
      "Ġhaven": 4180,
      "range": 4181,
      "Please": 4182,
      "ĠEv": 4183,
      "Ġorganizations": 4184,
      "gl": 4185,
      "ĠMicro": 4186,
      "Ġâ": 4187,
      "Ġhomes": 4188,
      "vere": 4189,
      "ĠFound": 4190,
      "Ġexperienced": 4191,
      "text": 4192,
      "Ġhotel": 4193,
      "odes": 4194,
      "Ġstatus": 4195,
      "Ġdriving": 4196,
      "Ġpieces": 4197,
      "ae": 4198,
      "Ġafford": 4199,
      "Ġknows": 4200,
      "Ġguarant": 4201,
      "IM": 4202,
      "dule": 4203,
      "Ġharm": 4204,
      "Ġextremely": 4205,
      "ĠDevelop": 4206,
      "iced": 4207,
      "pective": 4208,
      "Ġtoward": 4209,
      "Ġcitiz": 4210,
      "sey": 4211,
      "opped": 4212,
      "ady": 4213,
      "ores": 4214,
      "Ġprot": 4215,
      "ervation": 4216,
      "Ġconference": 4217,
      "ĠRoad": 4218,
      "Ġcontinu": 4219,
      "Ġreviews": 4220,
      "ĠWindows": 4221,
      "Ġlock": 4222,
      "ĠCr": 4223,
      "Ġpsych": 4224,
      "Ġtransport": 4225,
      "Ar": 4226,
      "ĠChurch": 4227,
      "Ġdemonstr": 4228,
      "ĠPress": 4229,
      "Ġthank": 4230,
      "ĠAustralia": 4231,
      "raw": 4232,
      "Ġincred": 4233,
      "know": 4234,
      "ym": 4235,
      "Ġstream": 4236,
      "Not": 4237,
      "gn": 4238,
      "Ġconnection": 4239,
      "rees": 4240,
      "porary": 4241,
      "ĠSun": 4242,
      "Ġhighest": 4243,
      "ĠMart": 4244,
      "Ġ@": 4245,
      "ĠAv": 4246,
      "Ġelectric": 4247,
      "oves": 4248,
      "Ġmist": 4249,
      "Ġactual": 4250,
      "lim": 4251,
      "ĠRober": 4252,
      "Ġestablished": 4253,
      "Ġrequires": 4254,
      "Ġcollabor": 4255,
      "Ġbiggest": 4256,
      "Ġonto": 4257,
      "75": 4258,
      "Ġ80": 4259,
      "AA": 4260,
      "Some": 4261,
      "ss": 4262,
      "azine": 4263,
      "umn": 4264,
      "aven": 4265,
      "itar": 4266,
      "uman": 4267,
      "Ġdiet": 4268,
      "ĠMem": 4269,
      "unately": 4270,
      "Do": 4271,
      "ios": 4272,
      "Ġwine": 4273,
      "Ġwhatever": 4274,
      "EM": 4275,
      "aming": 4276,
      "ĠBen": 4277,
      "gency": 4278,
      "Ġtherefore": 4279,
      "rian": 4280,
      "Ġcommit": 4281,
      "Ġheavy": 4282,
      "za": 4283,
      "Ġstorage": 4284,
      "Ġsecret": 4285,
      "ĠTwitter": 4286,
      "iller": 4287,
      "ĠSee": 4288,
      "Ġadop": 4289,
      "Ġprimary": 4290,
      "Ġdaughter": 4291,
      "ĠSam": 4292,
      "ĠMary": 4293,
      "âĢĿ,": 4294,
      "iled": 4295,
      "ĠInstitute": 4296,
      "ĠOh": 4297,
      "Ġacadem": 4298,
      "Ġmeant": 4299,
      "ĠThom": 4300,
      "Ġmission": 4301,
      "Ġvill": 4302,
      "Ġcolle": 4303,
      "Ġmaster": 4304,
      "rowd": 4305,
      "Ġestablish": 4306,
      "entially": 4307,
      "ĠPublic": 4308,
      "ĠST": 4309,
      "ĠHot": 4310,
      "Ġrefer": 4311,
      "with": 4312,
      "asure": 4313,
      "iers": 4314,
      "Ġrich": 4315,
      "men": 4316,
      "Con": 4317,
      "Ġhospital": 4318,
      "Ġuseful": 4319,
      "ĠBank": 4320,
      "ĠSol": 4321,
      "Ġnames": 4322,
      "ĠPhil": 4323,
      "annel": 4324,
      "ĠCompany": 4325,
      "oos": 4326,
      "ĠCamp": 4327,
      "estival": 4328,
      "Ġolder": 4329,
      "Ġseemed": 4330,
      "500": 4331,
      "ĠManagement": 4332,
      "ĠPeople": 4333,
      "nding": 4334,
      "ĠClub": 4335,
      "ĠMag": 4336,
      "ocal": 4337,
      "____": 4338,
      "ĠFlorida": 4339,
      "icon": 4340,
      "box": 4341,
      "Ġresist": 4342,
      "ĠRiver": 4343,
      "Ġremains": 4344,
      "Ġcards": 4345,
      "Ġstation": 4346,
      "Ġvision": 4347,
      "Ġfactors": 4348,
      "Ġmodels": 4349,
      "Ġunit": 4350,
      "Ġbecomes": 4351,
      "ĠClass": 4352,
      "acing": 4353,
      "Ġparties": 4354,
      "Ġlimit": 4355,
      "Ġmemory": 4356,
      "ĠEngland": 4357,
      "Ġbath": 4358,
      "Ġbatter": 4359,
      "Ġexhib": 4360,
      "la": 4361,
      "Ġstreet": 4362,
      "Ġmanager": 4363,
      "oices": 4364,
      "Ġproduced": 4365,
      "UR": 4366,
      "Ġton": 4367,
      "Ġcovered": 4368,
      "ĠTime": 4369,
      "ĠLife": 4370,
      "enses": 4371,
      "phone": 4372,
      "ĠDemocr": 4373,
      "Ġdrop": 4374,
      "Ġrare": 4375,
      "Ġdeveloping": 4376,
      "Ġmonitor": 4377,
      "Ġmill": 4378,
      "Ġ2005": 4379,
      "Ġchallenges": 4380,
      "Ġpayment": 4381,
      "Ġfiles": 4382,
      "Ġplaced": 4383,
      "ĠRob": 4384,
      "osure": 4385,
      "ucky": 4386,
      "orial": 4387,
      "ona": 4388,
      "OP": 4389,
      "Ġpaint": 4390,
      "ĠOnce": 4391,
      "Ġargu": 4392,
      "Ġguid": 4393,
      "Ġbalance": 4394,
      "Ġearth": 4395,
      "**": 4396,
      "Ġaim": 4397,
      "vention": 4398,
      "ĠCongress": 4399,
      "encies": 4400,
      "Ġrob": 4401,
      "Ġ90": 4402,
      "kin": 4403,
      "itors": 4404,
      "Ġ31": 4405,
      "Ġlinks": 4406,
      "itness": 4407,
      "Ġfinding": 4408,
      "ĠMex": 4409,
      "Ġlegisl": 4410,
      "Ġmatt": 4411,
      "Ġremind": 4412,
      "Ġstick": 4413,
      "Ġcomfortable": 4414,
      "Pl": 4415,
      "Ġhappens": 4416,
      "Ġscen": 4417,
      "ĠApple": 4418,
      "Ġtim": 4419,
      "ĠMiss": 4420,
      "Ġ35": 4421,
      "Ġmethods": 4422,
      "ĠDirector": 4423,
      "Ġexperiences": 4424,
      ");": 4425,
      "ĠBay": 4426,
      "look": 4427,
      "Ġguess": 4428,
      "Ġforms": 4429,
      "reak": 4430,
      "Ġbow": 4431,
      "gal": 4432,
      "isco": 4433,
      "standing": 4434,
      "Ġmanufacture": 4435,
      "ki": 4436,
      "Ġcentral": 4437,
      "Ġepis": 4438,
      "atically": 4439,
      "olly": 4440,
      "CH": 4441,
      "ENT": 4442,
      "Ġtesting": 4443,
      "ror": 4444,
      "roy": 4445,
      "\",": 4446,
      "ĠBecause": 4447,
      "Ġdescribed": 4448,
      "roud": 4449,
      "Â®": 4450,
      "Ġscene": 4451,
      "ula": 4452,
      "Ġvote": 4453,
      "Ġbeat": 4454,
      "ĠSub": 4455,
      "ĠPlan": 4456,
      "Ġsenior": 4457,
      "Ġsym": 4458,
      "Ġjourney": 4459,
      "ĠWhe": 4460,
      "Ġflav": 4461,
      "iation": 4462,
      "inn": 4463,
      "Ġshared": 4464,
      "Ġevening": 4465,
      "ĠDesign": 4466,
      "gers": 4467,
      "mail": 4468,
      "Ġclaims": 4469,
      "ĠCap": 4470,
      "ĠHist": 4471,
      "Ġdat": 4472,
      "ulate": 4473,
      "Ġtraffic": 4474,
      "berg": 4475,
      "Ġstandards": 4476,
      "Ġcommunities": 4477,
      "riage": 4478,
      "eed": 4479,
      "enture": 4480,
      "Ġdetermine": 4481,
      "uled": 4482,
      "CC": 4483,
      "ĠEach": 4484,
      "works": 4485,
      "Ġbehavior": 4486,
      "amily": 4487,
      "Ġeth": 4488,
      "ota": 4489,
      "oyal": 4490,
      "Ġshowed": 4491,
      "Ġopened": 4492,
      "Ġretail": 4493,
      "last": 4494,
      "Ġmajority": 4495,
      "44": 4496,
      "ĠJew": 4497,
      "Ġtips": 4498,
      "Ġofficials": 4499,
      "Ġjournal": 4500,
      "oto": 4501,
      "ĠPR": 4502,
      "osition": 4503,
      "Ġwaiting": 4504,
      "Ġspending": 4505,
      "Ġvir": 4506,
      "Ġwatching": 4507,
      "iture": 4508,
      "ĠSince": 4509,
      "ĠCare": 4510,
      "iques": 4511,
      "osis": 4512,
      "Ġviews": 4513,
      "Ġfashion": 4514,
      "Ġkeeping": 4515,
      "Ġwindow": 4516,
      "azon": 4517,
      "Ġrecords": 4518,
      "cles": 4519,
      "Ġthanks": 4520,
      "Ġlands": 4521,
      "semb": 4522,
      "Ġthousands": 4523,
      "Ġexercise": 4524,
      "ĠUSA": 4525,
      "rab": 4526,
      "From": 4527,
      "Ġcaused": 4528,
      "Ġsecure": 4529,
      "Ġsexual": 4530,
      "ĠAP": 4531,
      "Ġselection": 4532,
      "Ġjump": 4533,
      "lig": 4534,
      "ĠHel": 4535,
      "inese": 4536,
      "free": 4537,
      "Ġcontinues": 4538,
      "state": 4539,
      "Ġearn": 4540,
      "ĠScience": 4541,
      "Ġthus": 4542,
      "ĠPet": 4543,
      "Ġexclus": 4544,
      "Ġprec": 4545,
      "ĠInformation": 4546,
      "do": 4547,
      "Ġowner": 4548,
      "Ġcompetition": 4549,
      "Ġsumm": 4550,
      "Ġideal": 4551,
      "Ġfish": 4552,
      "ĠCommission": 4553,
      "Ġposted": 4554,
      "but": 4555,
      "Ġmanage": 4556,
      "Ġpolic": 4557,
      "ternal": 4558,
      "Ġteaching": 4559,
      "ĠLou": 4560,
      "Ġsolid": 4561,
      "Ġgain": 4562,
      "point": 4563,
      "Ġlose": 4564,
      "ooper": 4565,
      "Ġappears": 4566,
      "ĠEducation": 4567,
      "olate": 4568,
      "Ġelements": 4569,
      "Ġforget": 4570,
      "Ġcommunication": 4571,
      "hy": 4572,
      "gment": 4573,
      "edy": 4574,
      "Ġwinter": 4575,
      "lor": 4576,
      "anta": 4577,
      "Ġpray": 4578,
      "Ġdecide": 4579,
      "Ġtechnical": 4580,
      "Ġmentioned": 4581,
      "Ġfurn": 4582,
      "ĠBrown": 4583,
      "Ġpresented": 4584,
      "Ġanimals": 4585,
      "ipe": 4586,
      "Ġdirection": 4587,
      "Ġdep": 4588,
      "RA": 4589,
      "Ġlabor": 4590,
      "Ġbag": 4591,
      "ĠTom": 4592,
      "ĠGeorge": 4593,
      "Ab": 4594,
      "spe": 4595,
      "Ġprepared": 4596,
      "ĠUse": 4597,
      "Ġcoach": 4598,
      "Ġclearly": 4599,
      "Ġmulti": 4600,
      "icago": 4601,
      "Ġplenty": 4602,
      "âĢĺ": 4603,
      "ented": 4604,
      "Ġimpl": 4605,
      "Ġutil": 4606,
      "Ġotherwise": 4607,
      "itz": 4608,
      "iency": 4609,
      "overy": 4610,
      "Ġrule": 4611,
      "orney": 4612,
      "asp": 4613,
      "Ġoperations": 4614,
      "pan": 4615,
      "Ġrap": 4616,
      "95": 4617,
      "Ġestim": 4618,
      "ette": 4619,
      "Ġ70": 4620,
      "ĠSmith": 4621,
      "Ġmail": 4622,
      "fast": 4623,
      "NA": 4624,
      "Ġlaunch": 4625,
      "Ġhar": 4626,
      "Ġlaws": 4627,
      "miss": 4628,
      "Ġice": 4629,
      "Ġtrial": 4630,
      "inct": 4631,
      "Ġneighbor": 4632,
      "nect": 4633,
      "Ġwaste": 4634,
      "Ġsem": 4635,
      "ellow": 4636,
      "night": 4637,
      "Ġadvance": 4638,
      "Ġbutton": 4639,
      "Post": 4640,
      "Ġsources": 4641,
      "Ġcris": 4642,
      "Cont": 4643,
      "bo": 4644,
      "Ġradio": 4645,
      "yer": 4646,
      "Ġship": 4647,
      "apers": 4648,
      "Ġgrant": 4649,
      "Ġtemperature": 4650,
      "Ġsustain": 4651,
      "ĠChild": 4652,
      "ĠAlthough": 4653,
      "osh": 4654,
      "ĠPower": 4655,
      "34": 4656,
      "ĠMake": 4657,
      "ipp": 4658,
      "roid": 4659,
      "ĠRel": 4660,
      "Ġended": 4661,
      "ĠAlex": 4662,
      "ĠCD": 4663,
      "ste": 4664,
      "Ġpassion": 4665,
      "Ġagency": 4666,
      "Ġdepartment": 4667,
      "Ġrank": 4668,
      "actions": 4669,
      "alls": 4670,
      "Ġleaving": 4671,
      "Ġsand": 4672,
      "Ġsnow": 4673,
      "Ġefficient": 4674,
      "Ġvideos": 4675,
      "Ġremove": 4676,
      "Ġcrowd": 4677,
      "Ġwilling": 4678,
      "Ġspring": 4679,
      "Ġindependent": 4680,
      "Ġleadership": 4681,
      "Ġcounter": 4682,
      "water": 4683,
      "omin": 4684,
      "ĠLake": 4685,
      "ĠDec": 4686,
      "Ġadding": 4687,
      "Ġactions": 4688,
      "ĠMat": 4689,
      "antic": 4690,
      "pet": 4691,
      "Ġcatch": 4692,
      "outhern": 4693,
      "Ġdiscover": 4694,
      "Bl": 4695,
      "Ġmort": 4696,
      "Ġingred": 4697,
      "inc": 4698,
      "Ġwhom": 4699,
      "ads": 4700,
      "ĠMount": 4701,
      "Ġbird": 4702,
      "Ġbecoming": 4703,
      "estic": 4704,
      "ordin": 4705,
      "Ġapprox": 4706,
      "ĠStar": 4707,
      "Ġshowing": 4708,
      "ception": 4709,
      "Ġspecies": 4710,
      "Ġdespite": 4711,
      "Ġflex": 4712,
      "Ġstarts": 4713,
      "ading": 4714,
      "Ġvalues": 4715,
      "active": 4716,
      "Ġartist": 4717,
      "Ġforeign": 4718,
      "Ġkid": 4719,
      "Ġsession": 4720,
      "unction": 4721,
      "Me": 4722,
      "bing": 4723,
      "ĠFore": 4724,
      "Ġexcited": 4725,
      "Ġraised": 4726,
      "Ġfamous": 4727,
      "Ġdedicated": 4728,
      "Ġnovel": 4729,
      "Ġ196": 4730,
      "Ġopinion": 4731,
      "Ġlisted": 4732,
      "Ġfol": 4733,
      "Ġtrail": 4734,
      "Ġbul": 4735,
      "Ġsugar": 4736,
      "ĠOnline": 4737,
      "Ġfill": 4738,
      "36": 4739,
      "ĠSil": 4740,
      "Ġupdate": 4741,
      "Ġcontains": 4742,
      "Ġpool": 4743,
      "Ġtask": 4744,
      "ĠTop": 4745,
      "Ġhonest": 4746,
      "Ġign": 4747,
      "ĠTor": 4748,
      "ĠBur": 4749,
      "Ġschedule": 4750,
      "More": 4751,
      "Ġpair": 4752,
      "Ġclosed": 4753,
      "ugg": 4754,
      "Ġinjury": 4755,
      "fit": 4756,
      "ferences": 4757,
      "Ġrelax": 4758,
      "Ġtransl": 4759,
      "ĠAmericans": 4760,
      "Ġfootball": 4761,
      "Ġsty": 4762,
      "gery": 4763,
      "ĠCur": 4764,
      "Ġthrow": 4765,
      "37": 4766,
      "38": 4767,
      "Ġshopping": 4768,
      "Ġcraft": 4769,
      "Ġcore": 4770,
      "Ġbrief": 4771,
      "Ġgraph": 4772,
      "Ġkilled": 4773,
      "Ġboo": 4774,
      "Ġincor": 4775,
      "ĠBlue": 4776,
      "no": 4777,
      "PA": 4778,
      "ĠSal": 4779,
      "Ġpractices": 4780,
      "55": 4781,
      "door": 4782,
      "Ġegg": 4783,
      "Ġclasses": 4784,
      "Ġwelcome": 4785,
      "Ġrat": 4786,
      "reek": 4787,
      "Ġunc": 4788,
      "Ġsympt": 4789,
      "Ġcapacity": 4790,
      "Ġvolunte": 4791,
      "ĠGovernment": 4792,
      "Why": 4793,
      "ctors": 4794,
      "abilities": 4795,
      "rd": 4796,
      "Ġpoll": 4797,
      "ĠAfrica": 4798,
      "Ġcoverage": 4799,
      "Ġshape": 4800,
      "ĠTO": 4801,
      "Ġdecisions": 4802,
      "ishes": 4803,
      "cel": 4804,
      "ĠDet": 4805,
      "32": 4806,
      "DF": 4807,
      "Ġmur": 4808,
      "Ġmostly": 4809,
      "Ġvs": 4810,
      "word": 4811,
      "Ġagreement": 4812,
      "Ġrestaurant": 4813,
      "ĠVir": 4814,
      "ĠSa": 4815,
      "Ġnor": 4816,
      "ĠSing": 4817,
      "arge": 4818,
      "Ġexperts": 4819,
      "craft": 4820,
      "Ġresidents": 4821,
      "Ġconven": 4822,
      "Ġfacilities": 4823,
      "tained": 4824,
      "aked": 4825,
      "ĠUnder": 4826,
      "Ġflu": 4827,
      "Ġfunds": 4828,
      "esterday": 4829,
      "iliar": 4830,
      "Ġbought": 4831,
      "Ġbright": 4832,
      "ĠWood": 4833,
      "Ġmanaged": 4834,
      "Ad": 4835,
      "ĠMil": 4836,
      "Ġsmaller": 4837,
      "Ġhandle": 4838,
      "Ġcorner": 4839,
      "Ġsched": 4840,
      "Ġadministration": 4841,
      "ĠBer": 4842,
      "Ġconnected": 4843,
      "Ġdocuments": 4844,
      "Ġnotes": 4845,
      "Ġsch": 4846,
      "ĠLike": 4847,
      "ĠCommittee": 4848,
      "ĠCentral": 4849,
      "Ġidentify": 4850,
      "Ġap": 4851,
      "Ġdriver": 4852,
      "Ġsoul": 4853,
      "Ġseparate": 4854,
      "Ġproud": 4855,
      "Ġleads": 4856,
      "ĠLear": 4857,
      "Ġcasino": 4858,
      "Ġnumerous": 4859,
      "ucle": 4860,
      "going": 4861,
      "Ġbuying": 4862,
      "Ġselected": 4863,
      "Ġsouth": 4864,
      "oles": 4865,
      "Ġshut": 4866,
      "Ġrelevant": 4867,
      "how": 4868,
      "ĠAtt": 4869,
      "Ġminute": 4870,
      "Ġpresence": 4871,
      "Ġenvironmental": 4872,
      "Ġreturned": 4873,
      "ĠCarol": 4874,
      "Ġdiscussion": 4875,
      "Ġbon": 4876,
      "Ġchair": 4877,
      "ulations": 4878,
      "Ġchanging": 4879,
      "Ġ>": 4880,
      "oop": 4881,
      "Ġcircum": 4882,
      "rad": 4883,
      "Ġplants": 4884,
      "Ġtaste": 4885,
      "Ġdiagn": 4886,
      "ĠAND": 4887,
      "cient": 4888,
      "Ġmicro": 4889,
      "Ġbattle": 4890,
      "Your": 4891,
      "MS": 4892,
      "Ġthoughts": 4893,
      "Ġrelationships": 4894,
      "ĠWater": 4895,
      "Ġcombination": 4896,
      "Ġtree": 4897,
      "cket": 4898,
      "which": 4899,
      "Ġwinning": 4900,
      "Ġsequ": 4901,
      "BS": 4902,
      "ĠMal": 4903,
      "Ġposts": 4904,
      "Ġcontext": 4905,
      "Ġcloud": 4906,
      "Ġslightly": 4907,
      "BA": 4908,
      "Ġmental": 4909,
      "while": 4910,
      "uries": 4911,
      "Ġkick": 4912,
      "icken": 4913,
      "Ġabsolutely": 4914,
      "Ġpreviously": 4915,
      "Ġconcerns": 4916,
      "Ġpolicies": 4917,
      "Ġleaves": 4918,
      "ĠChinese": 4919,
      "Ġfreed": 4920,
      "win": 4921,
      "Ġarticles": 4922,
      "Ġasking": 4923,
      "ĠVol": 4924,
      "Ġ2000": 4925,
      "ĠScott": 4926,
      "Ġarm": 4927,
      "outs": 4928,
      "usion": 4929,
      "Ġvisual": 4930,
      "atures": 4931,
      "Ġholiday": 4932,
      "life": 4933,
      "ĠLove": 4934,
      "ĠJo": 4935,
      "igr": 4936,
      "Ġjoint": 4937,
      "Ġadvanced": 4938,
      "Ġalternative": 4939,
      "ĠFood": 4940,
      "Ġ2004": 4941,
      "Ġinitial": 4942,
      "known": 4943,
      "fin": 4944,
      "48": 4945,
      "hab": 4946,
      "Ġindic": 4947,
      "Ġcars": 4948,
      "Ġhearing": 4949,
      "umber": 4950,
      "Acc": 4951,
      "tenance": 4952,
      "Ġpal": 4953,
      "ĠChicago": 4954,
      "Ġcab": 4955,
      "Ġrain": 4956,
      "Ġreached": 4957,
      "Ġnorth": 4958,
      "Ġconsid": 4959,
      "ĠIns": 4960,
      "Ġwalking": 4961,
      "ĠDown": 4962,
      "Ġclassic": 4963,
      "Ġmap": 4964,
      "ĠStr": 4965,
      "Ġworry": 4966,
      "ka": 4967,
      "Ġoperating": 4968,
      "Ġbrings": 4969,
      "Ġadapt": 4970,
      "Ġcolors": 4971,
      "CT": 4972,
      "ront": 4973,
      "ĠÃ": 4974,
      "47": 4975,
      "Ġlisten": 4976,
      "Ġrid": 4977,
      "what": 4978,
      "Ġexplore": 4979,
      "ĠCheck": 4980,
      "ĠSum": 4981,
      "Ġfourth": 4982,
      "Ġgarden": 4983,
      "ĠMain": 4984,
      "Ġgeneration": 4985,
      "Ġprinci": 4986,
      "ĠDiv": 4987,
      "ĠTimes": 4988,
      "ĠFranc": 4989,
      "top": 4990,
      "ixt": 4991,
      "tion": 4992,
      "Ġeating": 4993,
      "illa": 4994,
      "ĠOpen": 4995,
      "Ġflat": 4996,
      "Ġcitizens": 4997,
      "IR": 4998,
      "Ġdoubt": 4999,
      "ini": 5000,
      "ĠGrand": 5001,
      "Ġestate": 5002,
      "Ġdinner": 5003,
      "Ġride": 5004,
      "Ġsounds": 5005,
      "IA": 5006,
      "Last": 5007,
      "ĠLeague": 5008,
      "Ġconcent": 5009,
      "Ġspl": 5010,
      "Ġpackage": 5011,
      "Ġmotor": 5012,
      "ĠMad": 5013,
      "Ġeventually": 5014,
      "ocolate": 5015,
      "Ġsongs": 5016,
      "ya": 5017,
      "igan": 5018,
      "ĠIsland": 5019,
      "ĠTur": 5020,
      "Ġunless": 5021,
      "ĠVis": 5022,
      "Ġminor": 5023,
      "Ġcorporate": 5024,
      "Ġlaun": 5025,
      "OD": 5026,
      "Ġloan": 5027,
      "Ġfeels": 5028,
      "Ġteacher": 5029,
      "Ġputting": 5030,
      "orter": 5031,
      "Ġdefense": 5032,
      "Ġsharing": 5033,
      "osen": 5034,
      "ga": 5035,
      "ĠClick": 5036,
      "Ġsitu": 5037,
      "ĠProfess": 5038,
      "Ġallowing": 5039,
      "Ġdelic": 5040,
      "Ġveget": 5041,
      "Ġcart": 5042,
      "uty": 5043,
      "Ġencourage": 5044,
      "Get": 5045,
      "Ġnegative": 5046,
      "Ġappeared": 5047,
      "Ġaccompl": 5048,
      "race": 5049,
      "ĠWin": 5050,
      "Ġarchitect": 5051,
      "Ġfocused": 5052,
      "isation": 5053,
      "Ġspect": 5054,
      "Ġcalc": 5055,
      "ĠColor": 5056,
      "Ġsea": 5057,
      "ĠVe": 5058,
      "ĠMicrosoft": 5059,
      "Ġmarkets": 5060,
      "ĠFire": 5061,
      "Ġfabric": 5062,
      "Ġclimate": 5063,
      "Ġsigned": 5064,
      "Ġobtain": 5065,
      "Ġwedding": 5066,
      "ĠHill": 5067,
      "Ġrise": 5068,
      "Ġdecor": 5069,
      "ĠTheir": 5070,
      "Ġmouth": 5071,
      "Ġsmooth": 5072,
      "ograp": 5073,
      "ĠTwo": 5074,
      "Ġarrest": 5075,
      "Ġresponsibility": 5076,
      "ĠEarth": 5077,
      "Le": 5078,
      "noon": 5079,
      "Ġfunding": 5080,
      "Ġcompar": 5081,
      "Ġdesk": 5082,
      "Ġbeauty": 5083,
      "Ġanimal": 5084,
      "esome": 5085,
      "ection": 5086,
      "Ġforces": 5087,
      "Ġnoted": 5088,
      "Ġformat": 5089,
      "May": 5090,
      "ears": 5091,
      "zen": 5092,
      "ructure": 5093,
      "Ġdebt": 5094,
      "Ġcommitted": 5095,
      "Ġexpensive": 5096,
      "coh": 5097,
      "rehens": 5098,
      "ĠBet": 5099,
      "cipe": 5100,
      "rolled": 5101,
      "!âĢĿ": 5102,
      "resp": 5103,
      "ĠYes": 5104,
      "Ġdogs": 5105,
      "rim": 5106,
      "Ġfee": 5107,
      "Ġseek": 5108,
      "PR": 5109,
      "Ġmo": 5110,
      "Ġfilled": 5111,
      "ĠLu": 5112,
      "Ġartists": 5113,
      "llig": 5114,
      "cont": 5115,
      "ii": 5116,
      "net": 5117,
      "ĠProject": 5118,
      "fortunately": 5119,
      "ĠFrank": 5120,
      "rive": 5121,
      "anda": 5122,
      "icians": 5123,
      "Ġteachers": 5124,
      "ĠJournal": 5125,
      "ĠGerman": 5126,
      "ĠJer": 5127,
      "Ġoperation": 5128,
      "ait": 5129,
      "Ġthr": 5130,
      "ushed": 5131,
      "eal": 5132,
      "ĠIr": 5133,
      "Ġsector": 5134,
      "Ġfif": 5135,
      "Ġelection": 5136,
      "Ġdatab": 5137,
      "Ġselling": 5138,
      "ushing": 5139,
      "Ġdistance": 5140,
      "ĠArch": 5141,
      "ĠDevelopment": 5142,
      "umin": 5143,
      "SP": 5144,
      "Ġpredict": 5145,
      "po": 5146,
      "Ġfriendly": 5147,
      "Ġfacility": 5148,
      "ĠSocial": 5149,
      "oma": 5150,
      "Ġinfluence": 5151,
      "ĠBack": 5152,
      "idential": 5153,
      "ĠLin": 5154,
      "Ġreaders": 5155,
      "Ġprofessionals": 5156,
      "tered": 5157,
      "Ġfemale": 5158,
      "unning": 5159,
      "Ġcommand": 5160,
      "Ġperformed": 5161,
      "ifts": 5162,
      "ulture": 5163,
      "Ġholding": 5164,
      "Ġalle": 5165,
      "!\"": 5166,
      "Ġbrows": 5167,
      "ĠWomen": 5168,
      "Ġapparent": 5169,
      "Ġgall": 5170,
      "Ste": 5171,
      "Ġshipping": 5172,
      "ĠUnion": 5173,
      "rag": 5174,
      "Ġclim": 5175,
      "Ġphil": 5176,
      "Ġplays": 5177,
      "ĠWho": 5178,
      "Ġraise": 5179,
      "Ġcream": 5180,
      "Ġmanner": 5181,
      "ĠNY": 5182,
      "Ġguests": 5183,
      "Ġassistance": 5184,
      "that": 5185,
      "ĠJud": 5186,
      "Des": 5187,
      "ĠReal": 5188,
      "Ġconversation": 5189,
      "Ġnine": 5190,
      "ĠHy": 5191,
      "Ġyouth": 5192,
      "Ġdu": 5193,
      "Ġproceed": 5194,
      "Ġconv": 5195,
      "Ġchief": 5196,
      "ĠConst": 5197,
      "ĠDistrict": 5198,
      "Ġban": 5199,
      "obe": 5200,
      "Ġsurvey": 5201,
      "Ġstated": 5202,
      "Ġ45": 5203,
      "Ġexplain": 5204,
      "ano": 5205,
      "cher": 5206,
      "ius": 5207,
      "Ġprocesses": 5208,
      "Ġreference": 5209,
      "essions": 5210,
      "nel": 5211,
      "Ġwriter": 5212,
      "Ġexciting": 5213,
      "ĠToday": 5214,
      "ĠCall": 5215,
      "ĠForm": 5216,
      "Ġjoined": 5217,
      "Ġproperties": 5218,
      "Ġapplied": 5219,
      "ĠFoundation": 5220,
      "rical": 5221,
      "ĠUN": 5222,
      "Ġserver": 5223,
      "Ġseconds": 5224,
      "Ġentry": 5225,
      "Ġmeasures": 5226,
      "Ġweap": 5227,
      "ĠHol": 5228,
      "Ġroof": 5229,
      "ĠParty": 5230,
      "Ġourselves": 5231,
      "kins": 5232,
      "TS": 5233,
      "Ġspeech": 5234,
      "ĠSociety": 5235,
      "Ġsets": 5236,
      "Ġmedium": 5237,
      "Ġsigns": 5238,
      "poses": 5239,
      "ĠMedia": 5240,
      "ĠMass": 5241,
      "Ġedge": 5242,
      "Ġforg": 5243,
      "ĠTeam": 5244,
      "arrant": 5245,
      "Ġtransform": 5246,
      "Add": 5247,
      "ommod": 5248,
      "Ġdie": 5249,
      "Ġminimum": 5250,
      "Ġterror": 5251,
      "ĠMel": 5252,
      "Ġimportance": 5253,
      "Ġoptim": 5254,
      "Ġtypically": 5255,
      "Ġcities": 5256,
      "Just": 5257,
      "ĠCustom": 5258,
      "ĠCommunity": 5259,
      "ĠGen": 5260,
      "Read": 5261,
      "Ġsymptoms": 5262,
      "Every": 5263,
      "49": 5264,
      "uce": 5265,
      "Ġquiet": 5266,
      "Ġenjoyed": 5267,
      "Ġremoved": 5268,
      "Ġswitch": 5269,
      "ĠEngine": 5270,
      "ye": 5271,
      "ĠQue": 5272,
      "atin": 5273,
      "ĠFrance": 5274,
      "However": 5275,
      "Ġresearc": 5276,
      "Ġtells": 5277,
      "ilding": 5278,
      "ship": 5279,
      "ĠMer": 5280,
      "Ġsav": 5281,
      "Ġdisp": 5282,
      "Ġmetal": 5283,
      "App": 5284,
      "uts": 5285,
      "ĠElect": 5286,
      "Ġcultural": 5287,
      "orthern": 5288,
      "Ġchemical": 5289,
      "ĠSpecial": 5290,
      "otic": 5291,
      "den": 5292,
      "Ġran": 5293,
      "Ġarg": 5294,
      "Ġinternal": 5295,
      "Ġdistrict": 5296,
      "Ġsitting": 5297,
      "ician": 5298,
      "Ġtechniques": 5299,
      "Ġdiscount": 5300,
      "ĠRad": 5301,
      "ĠAmazon": 5302,
      "Ġaccident": 5303,
      "Ġinstance": 5304,
      "tra": 5305,
      "Ġstret": 5306,
      "Ġmarried": 5307,
      "Ġproposed": 5308,
      "ĠLong": 5309,
      "ĠLos": 5310,
      "Ġinterests": 5311,
      "ĠTest": 5312,
      "Ġhero": 5313,
      "Ġju": 5314,
      "Ġsupposed": 5315,
      "ĠRobert": 5316,
      "Ġteach": 5317,
      "ups": 5318,
      "Ġwire": 5319,
      "Ġtopic": 5320,
      "Ne": 5321,
      "Ġcharges": 5322,
      "Ġupgr": 5323,
      "Ġacademic": 5324,
      "39": 5325,
      "you": 5326,
      "88": 5327,
      "Ġder": 5328,
      "Ġdetect": 5329,
      "isher": 5330,
      "ĠThanks": 5331,
      "ĠWil": 5332,
      "Ġlived": 5333,
      "Ġpossibly": 5334,
      "Ġcalling": 5335,
      "Ġafternoon": 5336,
      "oses": 5337,
      "ĠCanad": 5338,
      "Ġmissing": 5339,
      "Ġrepair": 5340,
      "Ġsuppl": 5341,
      "rooms": 5342,
      "Ġrooms": 5343,
      "Ġliber": 5344,
      "Ġtotally": 5345,
      "Ġath": 5346,
      "Ġhelpful": 5347,
      "ĠTim": 5348,
      "ĠDi": 5349,
      "okes": 5350,
      "ĠValley": 5351,
      "Phone": 5352,
      "ĠAfrican": 5353,
      "Ġfactor": 5354,
      "31": 5355,
      "Ġfruit": 5356,
      "yan": 5357,
      "uration": 5358,
      "Ġcheap": 5359,
      "aser": 5360,
      "Ġpregn": 5361,
      "ĠJones": 5362,
      "Ġmarriage": 5363,
      "LA": 5364,
      "Ġtough": 5365,
      "bert": 5366,
      "Ġdecades": 5367,
      "ĠAcadem": 5368,
      "ria": 5369,
      "ĠData": 5370,
      "ogue": 5371,
      "edia": 5372,
      "ĠIts": 5373,
      "Ġrecommended": 5374,
      "Ġmale": 5375,
      "ĠDuring": 5376,
      "idden": 5377,
      "Ġadults": 5378,
      "Ġintellig": 5379,
      "Ġsport": 5380,
      "ĠWestern": 5381,
      "SA": 5382,
      "Ġtrees": 5383,
      "Ġfailed": 5384,
      "ĠMusic": 5385,
      "46": 5386,
      "ĠWall": 5387,
      "Ġtheme": 5388,
      "Ġfuel": 5389,
      "ivered": 5390,
      "Ġthick": 5391,
      "ĠIll": 5392,
      "Ġemp": 5393,
      "Ġscale": 5394,
      "Ġconcerned": 5395,
      "ums": 5396,
      "Ġwebsites": 5397,
      "Ġspons": 5398,
      "Ġpurposes": 5399,
      "Ġfees": 5400,
      "Ġserving": 5401,
      "Ġmovies": 5402,
      "ĠCEO": 5403,
      "ĠNov": 5404,
      "met": 5405,
      "ĠPeter": 5406,
      "Ġsteel": 5407,
      "ĠMcC": 5408,
      "istan": 5409,
      "odies": 5410,
      "ĠVirgin": 5411,
      "uable": 5412,
      "Ġvan": 5413,
      "Ġuns": 5414,
      "Ġfamiliar": 5415,
      "Ġgreatest": 5416,
      "Ġprofile": 5417,
      "Ġvalid": 5418,
      "Ġsalt": 5419,
      "01": 5420,
      "ĠThomas": 5421,
      "Ġdepos": 5422,
      "raq": 5423,
      "ĠLight": 5424,
      "ĠJeff": 5425,
      "Ġcaught": 5426,
      "Ġpush": 5427,
      "ĠTre": 5428,
      "phas": 5429,
      "Ġunits": 5430,
      "arsh": 5431,
      "Ġshock": 5432,
      "Ġcontem": 5433,
      "Ġproperly": 5434,
      "ĠID": 5435,
      "cluding": 5436,
      "ometimes": 5437,
      "Ġstores": 5438,
      "rip": 5439,
      "ĠExper": 5440,
      "lets": 5441,
      "ĠCard": 5442,
      "ĠKore": 5443,
      "Ġconsumers": 5444,
      "Ġveter": 5445,
      "ĠGermany": 5446,
      "Ġweak": 5447,
      "Ġinstit": 5448,
      "Ġjudge": 5449,
      "Ġingredients": 5450,
      "Ġforced": 5451,
      "cipl": 5452,
      "Ġtight": 5453,
      "ena": 5454,
      "LC": 5455,
      "Ġbeach": 5456,
      "ĠJoe": 5457,
      "Well": 5458,
      "Ġquant": 5459,
      "Ġintended": 5460,
      "ĠSecret": 5461,
      "fection": 5462,
      "erg": 5463,
      "Ġment": 5464,
      "iration": 5465,
      "Ġsuit": 5466,
      "avig": 5467,
      "Ġcombined": 5468,
      "ĠLook": 5469,
      "Ġris": 5470,
      "Ġcourses": 5471,
      "bour": 5472,
      "Ġbusy": 5473,
      "mes": 5474,
      "Ġorders": 5475,
      "Ġassum": 5476,
      "Ġdollars": 5477,
      "Ġmir": 5478,
      "ensions": 5479,
      "Ġmaximum": 5480,
      "Ġaccounts": 5481,
      "Ġapproximately": 5482,
      "??": 5483,
      "ket": 5484,
      "ĠPay": 5485,
      "Ġcircumst": 5486,
      "Ġwitness": 5487,
      "Ġpun": 5488,
      "Ġrapid": 5489,
      "Ġrevenue": 5490,
      "Ġamb": 5491,
      "Ġviolence": 5492,
      "cuit": 5493,
      "Te": 5494,
      "alled": 5495,
      "Ġoccup": 5496,
      "Ġconsequ": 5497,
      "Ġ2003": 5498,
      "ĠAtl": 5499,
      "Ġfailure": 5500,
      "reens": 5501,
      "ĠOnly": 5502,
      "Ġfreedom": 5503,
      "Ġtow": 5504,
      "Ġconflic": 5505,
      "Ġdetailed": 5506,
      "ĠMot": 5507,
      "ĠDig": 5508,
      "ĠOld": 5509,
      "Ġ500": 5510,
      "ĠShow": 5511,
      "equ": 5512,
      "road": 5513,
      "Ġexchange": 5514,
      "Ġdiscovered": 5515,
      "hand": 5516,
      "Ġsuspect": 5517,
      "ĠId": 5518,
      "Ġworse": 5519,
      "ĠTrump": 5520,
      "ario": 5521,
      "Ġtro": 5522,
      "ĠMike": 5523,
      "Ġprison": 5524,
      "ĠFamily": 5525,
      "Ġrealize": 5526,
      "According": 5527,
      "Ġburn": 5528,
      "Ġpu": 5529,
      "Ġplastic": 5530,
      "ĠLouis": 5531,
      "Ġintroduced": 5532,
      "Ġeffic": 5533,
      "Ġspecifically": 5534,
      "Ġpure": 5535,
      "iminal": 5536,
      "rier": 5537,
      "Ġtwice": 5538,
      "nergy": 5539,
      "Ġaid": 5540,
      "Ġyes": 5541,
      "Ġkill": 5542,
      "Ġdrugs": 5543,
      "ĠTake": 5544,
      "cean": 5545,
      "dden": 5546,
      "Ġsupported": 5547,
      "Ġconfidence": 5548,
      "Let": 5549,
      "Ġyesterday": 5550,
      "Ġquot": 5551,
      "Ġcop": 5552,
      "agram": 5553,
      "Ġbound": 5554,
      "Ġaccommod": 5555,
      ".âĢĻ": 5556,
      "EW": 5557,
      "ĠJim": 5558,
      "wo": 5559,
      "Ġstanding": 5560,
      "ĠIP": 5561,
      "Ġdyn": 5562,
      "Ġseat": 5563,
      "ĠFind": 5564,
      "Ġenhance": 5565,
      "Ġprocessing": 5566,
      "Ġapproved": 5567,
      "orry": 5568,
      "ĠFil": 5569,
      "oston": 5570,
      "Ġbelief": 5571,
      "Ġpm": 5572,
      "cohol": 5573,
      "ĠFort": 5574,
      "list": 5575,
      "Ġapps": 5576,
      "Ġtrouble": 5577,
      "under": 5578,
      "Ġswim": 5579,
      "Ġaffected": 5580,
      "Ġsurgery": 5581,
      "Ġeditor": 5582,
      "Ġmenu": 5583,
      "Ġmotiv": 5584,
      "ĠStand": 5585,
      "Ġtelevision": 5586,
      "Ġexecutive": 5587,
      "prise": 5588,
      "arian": 5589,
      "Ġcauses": 5590,
      "Ġking": 5591,
      "Ġdraft": 5592,
      "Ġuniversity": 5593,
      "Ġvisitors": 5594,
      "ĠMont": 5595,
      "Che": 5596,
      "asks": 5597,
      "Ġlocations": 5598,
      "Ġeducational": 5599,
      "Can": 5600,
      "Ġagreed": 5601,
      "05": 5602,
      "ĠRE": 5603,
      "Yes": 5604,
      "Ġemployee": 5605,
      "van": 5606,
      "ĠOrgan": 5607,
      "Ġpanel": 5608,
      "ita": 5609,
      "ĠIraq": 5610,
      "ĠBeach": 5611,
      "Ġextensive": 5612,
      "Ġpromote": 5613,
      "ĠHam": 5614,
      "Ġdesire": 5615,
      "uclear": 5616,
      "Ġaspects": 5617,
      "ĠBo": 5618,
      "Ġgather": 5619,
      "ĠAccording": 5620,
      "ĠSand": 5621,
      "irty": 5622,
      "ĠWord": 5623,
      "ĠAngeles": 5624,
      "ingly": 5625,
      "ĠJul": 5626,
      "Ġmaintenance": 5627,
      "Ġprovider": 5628,
      "Ġannounce": 5629,
      "ĠTechnology": 5630,
      "Ġturns": 5631,
      "Ġprop": 5632,
      "ĠChris": 5633,
      "Ġremark": 5634,
      "Ġdial": 5635,
      "Ġdance": 5636,
      "ĠAward": 5637,
      "Ġarrange": 5638,
      "Ġlabel": 5639,
      "Ġtechnologies": 5640,
      "related": 5641,
      "ulty": 5642,
      "Ġelimin": 5643,
      "ĠMedical": 5644,
      "Ġincorpor": 5645,
      "Ġcarried": 5646,
      "Ġbreast": 5647,
      "ocation": 5648,
      "Ġlicense": 5649,
      "Ġcrisis": 5650,
      "Ġdesigns": 5651,
      "Ġtests": 5652,
      "Ġrecipe": 5653,
      "Ġsudden": 5654,
      "Ġrub": 5655,
      "Ġfold": 5656,
      "Ġdepending": 5657,
      "Ġadvertising": 5658,
      "Ġparking": 5659,
      "Ġbegins": 5660,
      "Ġemergency": 5661,
      "Ġseeking": 5662,
      "Ġlandsc": 5663,
      "ĠReport": 5664,
      "Ġbringing": 5665,
      "Ġarrived": 5666,
      "rastructure": 5667,
      "Americ": 5668,
      "UN": 5669,
      "tters": 5670,
      "iest": 5671,
      "osoph": 5672,
      "Ġsymb": 5673,
      "Ġstopped": 5674,
      "ĠGame": 5675,
      "59": 5676,
      "Ġbroken": 5677,
      "77": 5678,
      "Ġtables": 5679,
      "Ġmine": 5680,
      "Ġcomprehens": 5681,
      "Ġsides": 5682,
      "Ġdelivered": 5683,
      "ht": 5684,
      "Ġang": 5685,
      "nov": 5686,
      "Ġneck": 5687,
      "ideo": 5688,
      "Ġimproved": 5689,
      "Ġlunch": 5690,
      "ĠBob": 5691,
      "ossible": 5692,
      "ĠProduct": 5693,
      "Ġflight": 5694,
      "ĠDou": 5695,
      "aren": 5696,
      "ems": 5697,
      "ĠVict": 5698,
      "Ġanywhere": 5699,
      "Ġfavour": 5700,
      "Ġdecre": 5701,
      "Ġvolume": 5702,
      "Ġbutter": 5703,
      "Ġschol": 5704,
      "Ġconsidering": 5705,
      "bu": 5706,
      "arp": 5707,
      "Ġune": 5708,
      "Ġsevere": 5709,
      "Ġreligious": 5710,
      "Ġdetermined": 5711,
      "Sc": 5712,
      "Ġconsumer": 5713,
      "Ġhttps": 5714,
      "Res": 5715,
      "oking": 5716,
      "Ġoccasion": 5717,
      "Ġrom": 5718,
      "Ġprepare": 5719,
      "Ġepisode": 5720,
      "Ġtreated": 5721,
      "FL": 5722,
      "Ġrecip": 5723,
      "ĠAL": 5724,
      "Ġtun": 5725,
      "Ġwealth": 5726,
      "ultural": 5727,
      "anged": 5728,
      "Ġtelling": 5729,
      "Ġdiscl": 5730,
      "lock": 5731,
      "âĦ": 5732,
      "alian": 5733,
      "Ġcategory": 5734,
      "ĠYOU": 5735,
      "Ġ2002": 5736,
      "Ġappearance": 5737,
      "Ġbrown": 5738,
      "Ġlaunched": 5739,
      "ĠHave": 5740,
      "Ġlibrary": 5741,
      "UT": 5742,
      "Ġteen": 5743,
      "Ġhundreds": 5744,
      "Ġinput": 5745,
      "Ġunivers": 5746,
      "Ġ2001": 5747,
      "ĠAS": 5748,
      "ĠEnter": 5749,
      "Ġinvestigation": 5750,
      "ĠNetwork": 5751,
      "Ġfaster": 5752,
      "Ġbuildings": 5753,
      "Ġpaying": 5754,
      "Ġaudio": 5755,
      "clusion": 5756,
      "Su": 5757,
      "Ġerror": 5758,
      "Ġpicked": 5759,
      "kes": 5760,
      "Ġstars": 5761,
      "irmed": 5762,
      "ĠFederal": 5763,
      "ampionship": 5764,
      "Ġresource": 5765,
      "Ġsupporting": 5766,
      "Ġliqu": 5767,
      "erves": 5768,
      "Ġreduced": 5769,
      "Ġperspective": 5770,
      "ias": 5771,
      "Ġtheory": 5772,
      "Ġends": 5773,
      "ĠSecurity": 5774,
      "igration": 5775,
      "een": 5776,
      "rick": 5777,
      "Ġvary": 5778,
      "Ġbond": 5779,
      "Ġinspired": 5780,
      "ĠJapanese": 5781,
      "Ġcommitment": 5782,
      "ĠPan": 5783,
      "ĠDan": 5784,
      "Ġbigger": 5785,
      "Ġforest": 5786,
      "kay": 5787,
      "ĠLead": 5788,
      "ĠWilliam": 5789,
      "iat": 5790,
      "ĠGar": 5791,
      "CS": 5792,
      "ĠMexico": 5793,
      "Ġhistorical": 5794,
      "ĠCy": 5795,
      "ĠDen": 5796,
      "Ġprocedure": 5797,
      "Ġbelong": 5798,
      "Ġdefend": 5799,
      "Ġawesome": 5800,
      "Ġmilk": 5801,
      "Ġclinical": 5802,
      "Ġfantastic": 5803,
      "Ġhun": 5804,
      "ola": 5805,
      "IF": 5806,
      "ĠBoth": 5807,
      "Ġfle": 5808,
      "Ġmeat": 5809,
      "!!!!": 5810,
      "En": 5811,
      "Ġmere": 5812,
      "Ġcleaning": 5813,
      "Ġec": 5814,
      "burg": 5815,
      "icit": 5816,
      "Ġtruck": 5817,
      "Most": 5818,
      "ĠON": 5819,
      "Ġscientific": 5820,
      "ulous": 5821,
      "Ġexplained": 5822,
      "ibilities": 5823,
      "Ġpoly": 5824,
      "Ġindustrial": 5825,
      "Ġmode": 5826,
      "iveness": 5827,
      "ev": 5828,
      "ĠBre": 5829,
      "!)": 5830,
      "Ġelement": 5831,
      "ĠLab": 5832,
      "Ġspeaking": 5833,
      "Any": 5834,
      "ĠConference": 5835,
      "hetic": 5836,
      "Ġsac": 5837,
      "Ġcloser": 5838,
      "Ġimagine": 5839,
      "ĠInvest": 5840,
      "Ġofficer": 5841,
      "ĠWay": 5842,
      "Ġsam": 5843,
      "Ġsole": 5844,
      "Ġadvis": 5845,
      "ĠSenate": 5846,
      "Ġresol": 5847,
      "Ġcomponents": 5848,
      "orough": 5849,
      "ifications": 5850,
      "ĠJohnson": 5851,
      "Ġtickets": 5852,
      "ĠLast": 5853,
      "Ġtradition": 5854,
      "Ġstim": 5855,
      "ĠPerson": 5856,
      "elines": 5857,
      "âĦ¢": 5858,
      "Ġcrime": 5859,
      ".|": 5860,
      "Us": 5861,
      "ĠSeries": 5862,
      "iability": 5863,
      "ĠHuman": 5864,
      "Ġfunctions": 5865,
      "Ġlights": 5866,
      "Ġupdated": 5867,
      "Ġsquare": 5868,
      "Ġentirely": 5869,
      "eper": 5870,
      "Ġrot": 5871,
      "Ġfoods": 5872,
      "Ġphotograph": 5873,
      "Ġfort": 5874,
      "Ġexamples": 5875,
      "Ġwearing": 5876,
      "See": 5877,
      "ĠFund": 5878,
      "About": 5879,
      "aded": 5880,
      "Ġdomin": 5881,
      "First": 5882,
      "Ġbike": 5883,
      "ownt": 5884,
      "ĠMa": 5885,
      "Ġidentified": 5886,
      "Ġfly": 5887,
      "Ġjoy": 5888,
      "fol": 5889,
      "Ġsister": 5890,
      "Ġconcern": 5891,
      "Ġagent": 5892,
      "Ġemphas": 5893,
      "86": 5894,
      "rate": 5895,
      "ĠNOT": 5896,
      "ĠJose": 5897,
      "Ġaccepted": 5898,
      "Ĥ¬": 5899,
      "Ġmut": 5900,
      "Ġmotion": 5901,
      "Qu": 5902,
      "Ġregistered": 5903,
      "ĠHaw": 5904,
      "Ġchosen": 5905,
      "Ġsad": 5906,
      "Ġkinds": 5907,
      "ĠNor": 5908,
      "Ġhighlight": 5909,
      "ĠAdminist": 5910,
      "Ġtast": 5911,
      "Ġcoast": 5912,
      "ployment": 5913,
      "ĠOffic": 5914,
      "Ġboost": 5915,
      "mosp": 5916,
      "Ġsan": 5917,
      "DS": 5918,
      "Ġremaining": 5919,
      "Ġmeal": 5920,
      "Ġworksh": 5921,
      "Ġrelatively": 5922,
      "Ġodd": 5923,
      "Ġvictory": 5924,
      "ĠNC": 5925,
      "Ġinstitutions": 5926,
      "Ġlux": 5927,
      "aped": 5928,
      "Ġhousing": 5929,
      "Ġagencies": 5930,
      "ĠIsl": 5931,
      "II": 5932,
      "Ġprotein": 5933,
      "OC": 5934,
      "oration": 5935,
      "Ġregister": 5936,
      "Ġconfig": 5937,
      "Ġparticipate": 5938,
      "ĠHistory": 5939,
      "Ġtherapy": 5940,
      "real": 5941,
      "ĠWild": 5942,
      "Ġparticipants": 5943,
      "ilit": 5944,
      "Ġmedicine": 5945,
      "Ġcounty": 5946,
      "Ġfeedback": 5947,
      "Ġplanned": 5948,
      "Ġsample": 5949,
      "Ġcritic": 5950,
      "Ġhur": 5951,
      "ĠDef": 5952,
      "Ke": 5953,
      "ĠHead": 5954,
      "ĠCharl": 5955,
      "ĠThank": 5956,
      "pret": 5957,
      "ighter": 5958,
      "azz": 5959,
      "Ġeffectively": 5960,
      "ĠAT": 5961,
      "Ġchoices": 5962,
      "Ġgro": 5963,
      "Ġperman": 5964,
      "Ġwal": 5965,
      "Ġupdates": 5966,
      "Ġmagn": 5967,
      "ĠCat": 5968,
      "ĠMuseum": 5969,
      "ĠOper": 5970,
      "pass": 5971,
      "eries": 5972,
      "Ġfilms": 5973,
      "Ġoutput": 5974,
      "Ġspiritual": 5975,
      "hors": 5976,
      "Ġrough": 5977,
      "42": 5978,
      "Ġtom": 5979,
      "Ġbattery": 5980,
      "Ġfields": 5981,
      "ĠAud": 5982,
      "Ġmatters": 5983,
      "Ġchapter": 5984,
      "Ġflo": 5985,
      "Ġremote": 5986,
      "Ġconfirm": 5987,
      "Ġstrategies": 5988,
      "Ġworldwide": 5989,
      "Ġoblig": 5990,
      "ĠStep": 5991,
      "Ġdangerous": 5992,
      "gage": 5993,
      "lastname": 5994,
      "Ġcontrast": 5995,
      "appy": 5996,
      "Ġcolour": 5997,
      "ĠCam": 5998,
      "Ġrecovery": 5999,
      "Ġconstruct": 6000,
      "Ġrecorded": 6001,
      "EE": 6002,
      "iams": 6003,
      "Ġadministr": 6004,
      "VD": 6005,
      "Ġabuse": 6006,
      "Ġherself": 6007,
      "Ġvehicles": 6008,
      "Ġnone": 6009,
      "ĠBoston": 6010,
      "AG": 6011,
      "ĠMic": 6012,
      "Ġchocolate": 6013,
      "ĠView": 6014,
      "Ġcircumstances": 6015,
      "ĠProte": 6016,
      "Ġcreation": 6017,
      "Ġenem": 6018,
      "Ġcrew": 6019,
      "ĠCarolina": 6020,
      "ala": 6021,
      "Ġrestrict": 6022,
      "west": 6023,
      "Up": 6024,
      "never": 6025,
      "ĠMur": 6026,
      "ĠHen": 6027,
      "Ġexcess": 6028,
      "ĠCorpor": 6029,
      "Ġdestroy": 6030,
      "Ġ36": 6031,
      "Ġautomatically": 6032,
      "ĠMartin": 6033,
      "ĠMax": 6034,
      "Ġissued": 6035,
      "Am": 6036,
      "Ġinstallation": 6037,
      "Ġneighborhood": 6038,
      "ĠCath": 6039,
      "rome": 6040,
      "Ġobvious": 6041,
      "ĠVer": 6042,
      "dro": 6043,
      "prene": 6044,
      "ĠStart": 6045,
      "Ġcentre": 6046,
      "Ġauthority": 6047,
      "ĠInstead": 6048,
      "oti": 6049,
      "ĠCup": 6050,
      "Ġfollows": 6051,
      "Ġattacks": 6052,
      "eah": 6053,
      "Ġlit": 6054,
      "Ġunf": 6055,
      "Ġchain": 6056,
      "Ġusual": 6057,
      "Ġtrend": 6058,
      "Ġdatabase": 6059,
      "ĠBi": 6060,
      ":||": 6061,
      "ĠAD": 6062,
      "rics": 6063,
      "Ġfellow": 6064,
      "Fr": 6065,
      "ĠSk": 6066,
      "Ġdistribution": 6067,
      "Ġ32": 6068,
      "ĠMatt": 6069,
      "ĠGra": 6070,
      "Ġequal": 6071,
      "ĠAbout": 6072,
      "ĠSecond": 6073,
      "Ġsignificantly": 6074,
      "Ġknowing": 6075,
      "Ġinstalled": 6076,
      ".'": 6077,
      "Man": 6078,
      "07": 6079,
      "hi": 6080,
      "estyle": 6081,
      "Ġhonor": 6082,
      "Ġmassive": 6083,
      "ĠMaster": 6084,
      "ĠCanadian": 6085,
      "Ġscr": 6086,
      "Ġ<": 6087,
      "Ġpump": 6088,
      "Ġstorm": 6089,
      "Ġtrib": 6090,
      "ollywood": 6091,
      "08": 6092,
      "56": 6093,
      "Ġanx": 6094,
      "Ġproviders": 6095,
      "Ġofficers": 6096,
      "Ġvit": 6097,
      "ĠParis": 6098,
      "Ġtrading": 6099,
      "Ġrevealed": 6100,
      "ĠDu": 6101,
      "cknow": 6102,
      "reprene": 6103,
      "abet": 6104,
      "Ġhousehold": 6105,
      "Ġunlike": 6106,
      "ĠMen": 6107,
      "Ġchat": 6108,
      "Ġcharged": 6109,
      "Ġwarrant": 6110,
      "Ġfurniture": 6111,
      "CE": 6112,
      "Over": 6113,
      "gend": 6114,
      "hus": 6115,
      "Ġmoments": 6116,
      "Ġpublish": 6117,
      "Ind": 6118,
      "lla": 6119,
      "Ġreceiving": 6120,
      "Ġpositions": 6121,
      "hent": 6122,
      "ĠEnergy": 6123,
      "Ġkeeps": 6124,
      "Ġsubstant": 6125,
      "ĠArts": 6126,
      "Ġemployment": 6127,
      "ĠMinister": 6128,
      "arrow": 6129,
      "Ġfixed": 6130,
      "ĠiPhone": 6131,
      "Ġresearchers": 6132,
      "Ġpractical": 6133,
      "uated": 6134,
      "Ġmel": 6135,
      "ĠOR": 6136,
      "apes": 6137,
      "Ġanswers": 6138,
      "Ġpurchased": 6139,
      "Ġreput": 6140,
      "Ġholds": 6141,
      "ĠWhere": 6142,
      "Ġcomprehensive": 6143,
      "Ġleague": 6144,
      "Im": 6145,
      "Ġmissed": 6146,
      "ĠRussian": 6147,
      "Ġaccurate": 6148,
      "Ġlaugh": 6149,
      "Ġinvestors": 6150,
      "ĠLim": 6151,
      "Ġsuggested": 6152,
      "pot": 6153,
      "Ġtaught": 6154,
      "Ġdepress": 6155,
      "Ġreform": 6156,
      "lymp": 6157,
      "Ġformed": 6158,
      "Ġadvoc": 6159,
      "Ġbelieved": 6160,
      "ĠBas": 6161,
      "ĠProv": 6162,
      "ĠLand": 6163,
      "comm": 6164,
      "Ġidentity": 6165,
      "ĠGlobal": 6166,
      "Since": 6167,
      "can": 6168,
      "tr": 6169,
      "Ġconstantly": 6170,
      "Ġcutting": 6171,
      "Ġtea": 6172,
      "Ġshares": 6173,
      "Ġsurprise": 6174,
      "Ġbread": 6175,
      "gent": 6176,
      "Ġcro": 6177,
      "Ġfro": 6178,
      "Ġreturns": 6179,
      "Ġprotected": 6180,
      "Ġgrab": 6181,
      "esh": 6182,
      "Ġworst": 6183,
      "ĠKnow": 6184,
      "ĠPolice": 6185,
      "CA": 6186,
      "Ġrow": 6187,
      "Ġring": 6188,
      "Ġarms": 6189,
      "ĠVirginia": 6190,
      "ĠPenn": 6191,
      "ĠList": 6192,
      "och": 6193,
      "ĠPac": 6194,
      "Ġinfrastructure": 6195,
      "Ġforth": 6196,
      "aks": 6197,
      "Ġshooting": 6198,
      "acks": 6199,
      "ĠSteve": 6200,
      "paper": 6201,
      "78": 6202,
      "eless": 6203,
      "Click": 6204,
      "respond": 6205,
      "Ġfulf": 6206,
      "ĠWeek": 6207,
      "Ġinvolve": 6208,
      "Ġjustice": 6209,
      "Ġbasket": 6210,
      "sm": 6211,
      "Ġmal": 6212,
      "ĠRev": 6213,
      "ĠMP": 6214,
      "Ġsuitable": 6215,
      "Ġelig": 6216,
      "Ġhappening": 6217,
      "Ġcooking": 6218,
      "Ġcriminal": 6219,
      "oster": 6220,
      "Ġatmosp": 6221,
      "Ġven": 6222,
      "Ġcontro": 6223,
      "Ġsin": 6224,
      "ĠThose": 6225,
      "Ġtopics": 6226,
      "Ġexpertise": 6227,
      "enced": 6228,
      "Ġoutdoor": 6229,
      "iors": 6230,
      "ĠAndroid": 6231,
      "Or": 6232,
      "Ġped": 6233,
      "reets": 6234,
      "ĠâĢ¢": 6235,
      "weight": 6236,
      "Ġwindows": 6237,
      "Ġincredible": 6238,
      "ef": 6239,
      "inch": 6240,
      "ĠSupport": 6241,
      "Ġcompetitive": 6242,
      "Ġrestaurants": 6243,
      "ĠRepublican": 6244,
      "abled": 6245,
      "Ġdram": 6246,
      "Ġillustr": 6247,
      "Ġemotional": 6248,
      "Ġboys": 6249,
      "atre": 6250,
      "ĠDev": 6251,
      "Ġwinner": 6252,
      "ournament": 6253,
      "Oh": 6254,
      "alog": 6255,
      "Ġindeed": 6256,
      "Ġrenew": 6257,
      "Dr": 6258,
      "Ġincreases": 6259,
      "Ġwid": 6260,
      "oga": 6261,
      "ĠSto": 6262,
      "Ġguest": 6263,
      "Ġvaluable": 6264,
      "TC": 6265,
      "Ġgoods": 6266,
      "Another": 6267,
      "Ġscript": 6268,
      "Ġexpression": 6269,
      "Ġchart": 6270,
      "Ġscored": 6271,
      "Ġmagazine": 6272,
      "Ġsettings": 6273,
      "Ġentertainment": 6274,
      "Ġnurs": 6275,
      "ĠCas": 6276,
      "Ġgrown": 6277,
      "opyright": 6278,
      "Ġturning": 6279,
      "Ġgrade": 6280,
      "Ġengineering": 6281,
      "Ġroute": 6282,
      "inet": 6283,
      "Ġshoes": 6284,
      "Ġ48": 6285,
      "Ġappeal": 6286,
      "hered": 6287,
      "Ġcommission": 6288,
      "ĠIndust": 6289,
      "Ġelectronic": 6290,
      "cers": 6291,
      "owing": 6292,
      "Ġearned": 6293,
      "Ġcycle": 6294,
      "Ġassessment": 6295,
      "Ġhurt": 6296,
      "Ġexternal": 6297,
      "Ġsimpl": 6298,
      "Ġfolks": 6299,
      "xy": 6300,
      "ato": 6301,
      "Ġsyn": 6302,
      "Ġinnovative": 6303,
      "Ġalcohol": 6304,
      "Ġtiss": 6305,
      "uting": 6306,
      "Ġenable": 6307,
      "Ġregularly": 6308,
      "Ġacknow": 6309,
      "ĠRussia": 6310,
      "Ġcandidates": 6311,
      "Ġsick": 6312,
      "Ġrand": 6313,
      "Ġdomestic": 6314,
      "Ġguarantee": 6315,
      "ingu": 6316,
      "ĠTown": 6317,
      "illy": 6318,
      "ĠHD": 6319,
      "ĠExt": 6320,
      "Then": 6321,
      "ĠIran": 6322,
      "Ġconver": 6323,
      "Ġlovely": 6324,
      "Ġrecognized": 6325,
      "ache": 6326,
      "Ġstudio": 6327,
      "TA": 6328,
      "Ġchannel": 6329,
      "Ġdisappoint": 6330,
      "43": 6331,
      "ĠKeep": 6332,
      "Ġplate": 6333,
      "Ġpresentation": 6334,
      "aid": 6335,
      "Ġ2021": 6336,
      "agon": 6337,
      "Ġ300": 6338,
      "Ġassign": 6339,
      "Ġfrequently": 6340,
      "lo": 6341,
      "Ġaf": 6342,
      "ĠGirl": 6343,
      "Ġspr": 6344,
      "cribe": 6345,
      "Ġiron": 6346,
      "06": 6347,
      "Other": 6348,
      "Ġguard": 6349,
      "ATION": 6350,
      "Ġvacc": 6351,
      "Ġperfectly": 6352,
      "ĠLibrary": 6353,
      "Ġreasonable": 6354,
      "Ġfighting": 6355,
      "Ġboat": 6356,
      "Ġprocedures": 6357,
      "Ġcrazy": 6358,
      "ĠMichigan": 6359,
      "Ġenforce": 6360,
      "anger": 6361,
      "Ġextended": 6362,
      "ĠColumb": 6363,
      "Ġcandidate": 6364,
      "Mar": 6365,
      "ĠTem": 6366,
      "Ġwheel": 6367,
      "ĠMaybe": 6368,
      "irms": 6369,
      "Ġlosing": 6370,
      "odd": 6371,
      "Ġdish": 6372,
      "09": 6373,
      "ĠFull": 6374,
      "ĠEnd": 6375,
      "Ġnoticed": 6376,
      "oosing": 6377,
      "LY": 6378,
      "ĠWal": 6379,
      "vy": 6380,
      "Ġfeatured": 6381,
      "Ġinches": 6382,
      "Ġcampus": 6383,
      "Ġpolitics": 6384,
      "ĠControl": 6385,
      "Ġriver": 6386,
      "Ġreliable": 6387,
      "ĠAri": 6388,
      "eline": 6389,
      "199": 6390,
      "ĠPhot": 6391,
      "Are": 6392,
      "Many": 6393,
      "sembly": 6394,
      "Ġattorney": 6395,
      "ĠCA": 6396,
      "Ġcarefully": 6397,
      "Ġnative": 6398,
      "ora": 6399,
      "Ġscheduled": 6400,
      "Ġinstructions": 6401,
      "rible": 6402,
      "Ġcheese": 6403,
      "Ġtypical": 6404,
      "Ġupper": 6405,
      "Ġfacts": 6406,
      "Ġmonthly": 6407,
      "Ġdebate": 6408,
      "zer": 6409,
      "Ġ?": 6410,
      "inations": 6411,
      "ĠMiddle": 6412,
      "ras": 6413,
      "Ġportion": 6414,
      "ĠAsia": 6415,
      "iverse": 6416,
      "Ġbrands": 6417,
      "Ġregulations": 6418,
      "Ġrandom": 6419,
      "Ġchicken": 6420,
      "ĠPlus": 6421,
      "Ġsymbol": 6422,
      "ĠMS": 6423,
      "ĠRichard": 6424,
      "Ġnavig": 6425,
      "ensity": 6426,
      "Ġdistinct": 6427,
      "lights": 6428,
      "Ġinstitution": 6429,
      "Ġmessages": 6430,
      "ĠSar": 6431,
      "Ġcovers": 6432,
      "ĠArmy": 6433,
      "Ġclothes": 6434,
      "wing": 6435,
      "Ġmusical": 6436,
      "rete": 6437,
      "ĠSqu": 6438,
      "ĠManager": 6439,
      "58": 6440,
      "Ġregional": 6441,
      "Ġsupports": 6442,
      "Ġdim": 6443,
      "Once": 6444,
      "à¤": 6445,
      "Today": 6446,
      "Ġspoke": 6447,
      "Ġathlet": 6448,
      "gas": 6449,
      "ĠPub": 6450,
      "Ġhouses": 6451,
      "Ġrisks": 6452,
      "02": 6453,
      "Ġimpossible": 6454,
      "Ġauthorities": 6455,
      "Ġdiss": 6456,
      "Posted": 6457,
      "41": 6458,
      "Ġconserv": 6459,
      "ĠSpirit": 6460,
      "ĠCentre": 6461,
      "inding": 6462,
      "va": 6463,
      "Ġdoors": 6464,
      "Ġdegrees": 6465,
      "osite": 6466,
      "Spe": 6467,
      "host": 6468,
      "ĠAustralian": 6469,
      "Pe": 6470,
      "oral": 6471,
      "Ġhabit": 6472,
      "ansas": 6473,
      "ansion": 6474,
      "riting": 6475,
      "Ġille": 6476,
      "Ġfigures": 6477,
      "Ġwalls": 6478,
      "Ġowned": 6479,
      "Ġtaxes": 6480,
      "date": 6481,
      "Ġdump": 6482,
      "astern": 6483,
      "Ġlayer": 6484,
      "ĠAcademy": 6485,
      "ĠMo": 6486,
      "Ġvast": 6487,
      "Ġkne": 6488,
      "Ġdeals": 6489,
      "oman": 6490,
      "ĠEconom": 6491,
      "Ġsurf": 6492,
      "ĠBoy": 6493,
      "Ġvisiting": 6494,
      "yard": 6495,
      "ĠOlymp": 6496,
      "Ã¡": 6497,
      "Ġbless": 6498,
      "Ġdecade": 6499,
      "MA": 6500,
      "Ġgrew": 6501,
      "Ġentered": 6502,
      "Ġhorse": 6503,
      "rid": 6504,
      "ĠBow": 6505,
      "ĠFair": 6506,
      "ĠChief": 6507,
      "gypt": 6508,
      "Ġpil": 6509,
      "alse": 6510,
      "ĠItalian": 6511,
      "cluded": 6512,
      "Ġappreciate": 6513,
      "Ġtail": 6514,
      "ĠAR": 6515,
      "Ġcontest": 6516,
      "ĠChildren": 6517,
      "ua": 6518,
      "âĢĻ.": 6519,
      "Tr": 6520,
      "iety": 6521,
      "Ġsituations": 6522,
      "ĠGal": 6523,
      "Ġupcoming": 6524,
      "Ġticket": 6525,
      "HS": 6526,
      "ĠSports": 6527,
      "Ġmillions": 6528,
      "lines": 6529,
      "ĠTit": 6530,
      "Ġdescription": 6531,
      "Ġphase": 6532,
      "Ġconducted": 6533,
      "long": 6534,
      "Ġyards": 6535,
      "ĠLee": 6536,
      "Ġroutine": 6537,
      "Ġedition": 6538,
      "Ġrealized": 6539,
      "Ġconfirmed": 6540,
      "Ġfacing": 6541,
      "Mr": 6542,
      "anges": 6543,
      "Ġsmell": 6544,
      "ĠWilliams": 6545,
      "Ġoriginally": 6546,
      "icial": 6547,
      "Ġinfo": 6548,
      "Ġhealthcare": 6549,
      "orders": 6550,
      "Ġinterior": 6551,
      "Ġsusp": 6552,
      "57": 6553,
      "Ġfirstname": 6554,
      "ĠAnother": 6555,
      "----": 6556,
      "Ġbreath": 6557,
      "inder": 6558,
      "ĠAdv": 6559,
      "Ġmuscle": 6560,
      "Ġdelay": 6561,
      "Ġprospect": 6562,
      "eration": 6563,
      "Ġhate": 6564,
      "Ġhook": 6565,
      "ether": 6566,
      "lete": 6567,
      "Ġmeetings": 6568,
      "born": 6569,
      "Ġsessions": 6570,
      "Ġsky": 6571,
      "ĠKen": 6572,
      "GB": 6573,
      "merce": 6574,
      "Ġinnovation": 6575,
      "ml": 6576,
      "inem": 6577,
      "ĠCir": 6578,
      "pat": 6579,
      "ĠLog": 6580,
      "Ġbirthday": 6581,
      "ĠÐ": 6582,
      "bal": 6583,
      "Ġdiscussed": 6584,
      "Ġpulled": 6585,
      "Ġdefined": 6586,
      "04": 6587,
      "Ġsuccessfully": 6588,
      "Ġtalent": 6589,
      "Ġawareness": 6590,
      "ĠSign": 6591,
      "ĠAuthor": 6592,
      "ĠSpring": 6593,
      "ĠSP": 6594,
      "ĠVictor": 6595,
      "person": 6596,
      "uling": 6597,
      "bi": 6598,
      "ĠFOR": 6599,
      "Ġsilver": 6600,
      "aniel": 6601,
      "Ġadm": 6602,
      "Ġchallenging": 6603,
      "Of": 6604,
      "Ġassets": 6605,
      "ints": 6606,
      "!!!": 6607,
      "ican": 6608,
      "emic": 6609,
      "Ġhardware": 6610,
      "Ġbeer": 6611,
      "Ġfoundation": 6612,
      "Go": 6613,
      "Ġloves": 6614,
      "ĠFollow": 6615,
      "Ġtrig": 6616,
      "Ġtack": 6617,
      "Ġteeth": 6618,
      "Ġretire": 6619,
      "Ġunable": 6620,
      "Ġtwe": 6621,
      "Ġcoordin": 6622,
      "ERS": 6623,
      "agues": 6624,
      "ĠThrough": 6625,
      "Ġisland": 6626,
      "Ġprompt": 6627,
      "Although": 6628,
      "Ġregistration": 6629,
      "from": 6630,
      "gs": 6631,
      "Ġdrivers": 6632,
      "Ġaffordable": 6633,
      "ĠJon": 6634,
      "ĠYoung": 6635,
      "Ġacid": 6636,
      "Ġrecognize": 6637,
      "earing": 6638,
      "rum": 6639,
      "Ġseriously": 6640,
      "Ġsurprised": 6641,
      "âĢĻ,": 6642,
      "cking": 6643,
      "Ġdifferences": 6644,
      "ĠBefore": 6645,
      "Ġaffili": 6646,
      "ĠOhio": 6647,
      "Ġbonus": 6648,
      "Ġbear": 6649,
      "Ġfairly": 6650,
      "alle": 6651,
      "ĠFestival": 6652,
      "Ġcapable": 6653,
      "elf": 6654,
      "Ġsurrounding": 6655,
      "ĠAff": 6656,
      "ĠLive": 6657,
      "Ġstands": 6658,
      "Ġmountain": 6659,
      "ĠBrand": 6660,
      "Ġdropped": 6661,
      "Ġben": 6662,
      "Ġletters": 6663,
      "ĠLt": 6664,
      "Ġmanufacturing": 6665,
      "Ġvirtual": 6666,
      "Ġcake": 6667,
      "Ġrein": 6668,
      "ĠBible": 6669,
      "Ġvul": 6670,
      "Ġserves": 6671,
      "Ġplanet": 6672,
      "ĠTour": 6673,
      "Ġprove": 6674,
      "ĠScot": 6675,
      "Ġbreakfast": 6676,
      "Also": 6677,
      "Ġefficiency": 6678,
      "ih": 6679,
      "Ġancient": 6680,
      "Ġsuc": 6681,
      "elly": 6682,
      "ĠPass": 6683,
      "nam": 6684,
      "ÃŃ": 6685,
      "Ġcommittee": 6686,
      "ugh": 6687,
      "ĠBush": 6688,
      "Ġinvent": 6689,
      "Ġwarn": 6690,
      "ĠAccess": 6691,
      "Ġjack": 6692,
      "ĠiP": 6693,
      "ĠEr": 6694,
      "ĠContact": 6695,
      "OVID": 6696,
      ".||": 6697,
      "Ġdates": 6698,
      "Ġsubmit": 6699,
      "Ġfunny": 6700,
      "Ġmixed": 6701,
      "mond": 6702,
      "Ġcorn": 6703,
      "Ġcompens": 6704,
      "REE": 6705,
      "Ed": 6706,
      "awn": 6707,
      "Ġauthors": 6708,
      "ĠGeorg": 6709,
      "Ġgraduate": 6710,
      "Ġdiverse": 6711,
      "Ġclosely": 6712,
      "Ġtomorrow": 6713,
      "Ġincident": 6714,
      "Ġpremium": 6715,
      "Ġlistening": 6716,
      "Ġwalked": 6717,
      "nic": 6718,
      "inally": 6719,
      "Ġexclusive": 6720,
      "Ġcounsel": 6721,
      "Ġresolution": 6722,
      "Ġengage": 6723,
      "ĠWalk": 6724,
      "Ġtiny": 6725,
      "omy": 6726,
      "ĠEp": 6727,
      "ĠCoast": 6728,
      "Ġprivacy": 6729,
      "FC": 6730,
      "Ġpossibility": 6731,
      "Ġobjects": 6732,
      "66": 6733,
      "Ġheight": 6734,
      "tle": 6735,
      "igure": 6736,
      "ĠItaly": 6737,
      "ĠCreat": 6738,
      "umes": 6739,
      "Ġroot": 6740,
      "Ġorganic": 6741,
      "ĠCharles": 6742,
      "icing": 6743,
      "Ġpayments": 6744,
      "Ġslowly": 6745,
      "Sp": 6746,
      "Ġcommunications": 6747,
      "law": 6748,
      "ĠIre": 6749,
      "ĠColl": 6750,
      "ĠHand": 6751,
      "ĠEqu": 6752,
      "ta": 6753,
      "Ġnegoti": 6754,
      "Ġdelicious": 6755,
      "Ġenthus": 6756,
      "Ġpatterns": 6757,
      "ĠWhether": 6758,
      "PC": 6759,
      "Ġshift": 6760,
      "Ġdepth": 6761,
      "Ġyounger": 6762,
      "Ġvillage": 6763,
      "Ġphilosoph": 6764,
      "Ġstretch": 6765,
      "Ġhang": 6766,
      "ĠEU": 6767,
      "Ġliked": 6768,
      "iner": 6769,
      "Ġcooper": 6770,
      "Ġages": 6771,
      "Ġadventure": 6772,
      "Ġmachines": 6773,
      "Ġexpectations": 6774,
      "Ġsuggests": 6775,
      "TR": 6776,
      "Ġid": 6777,
      "Ġyellow": 6778,
      "Ġongoing": 6779,
      "Ġpharm": 6780,
      "Ġpainting": 6781,
      "cling": 6782,
      "Ġprofit": 6783,
      "Ġrevolution": 6784,
      "ĠDigital": 6785,
      "Ġnuclear": 6786,
      "oty": 6787,
      "Ġhumans": 6788,
      "AY": 6789,
      "ML": 6790,
      "ĠPage": 6791,
      "Ġreporting": 6792,
      "ĠFrancisco": 6793,
      "03": 6794,
      "Ġtank": 6795,
      "Ġplug": 6796,
      "Ġconsistent": 6797,
      "ĠCast": 6798,
      "Ġvital": 6799,
      "eding": 6800,
      "Ġcorrespond": 6801,
      "she": 6802,
      "esides": 6803,
      "Ġpassing": 6804,
      "ĠContin": 6805,
      "Ġempt": 6806,
      "Where": 6807,
      "ĠLo": 6808,
      "Ġmini": 6809,
      "ĠArab": 6810,
      "away": 6811,
      "aturally": 6812,
      "ĠJustice": 6813,
      "Int": 6814,
      "Ġnarr": 6815,
      "class": 6816,
      "ailability": 6817,
      "ĠPrem": 6818,
      "Ġattrib": 6819,
      "uster": 6820,
      "pay": 6821,
      "Ġtalked": 6822,
      "cons": 6823,
      "Ġarts": 6824,
      "Ġrail": 6825,
      "Ġflowers": 6826,
      "Free": 6827,
      "otal": 6828,
      "ĠSaf": 6829,
      "ĠColorado": 6830,
      "Ġsucceed": 6831,
      "Ġlegislation": 6832,
      "ĠRights": 6833,
      "achel": 6834,
      "inton": 6835,
      "Ġcock": 6836,
      "secut": 6837,
      "Ġdelight": 6838,
      "amber": 6839,
      "ĠLink": 6840,
      "ĠFarm": 6841,
      "Ġevil": 6842,
      "Ġtransition": 6843,
      "endar": 6844,
      "Ġfuck": 6845,
      "Ġnecessarily": 6846,
      "Ġprepar": 6847,
      "Ġcollected": 6848,
      "greg": 6849,
      "stream": 6850,
      "uls": 6851,
      "ubs": 6852,
      "ĠJackson": 6853,
      "resents": 6854,
      "ĠSet": 6855,
      "ĠCode": 6856,
      "ĠDie": 6857,
      "Ġnormally": 6858,
      "Per": 6859,
      "ĠLittle": 6860,
      "Ġlegs": 6861,
      "Ġvictims": 6862,
      "Ġthin": 6863,
      "comes": 6864,
      "Ġtested": 6865,
      "Ġicon": 6866,
      "Ġlicens": 6867,
      "Ġtag": 6868,
      "Ġrelief": 6869,
      "ĠNight": 6870,
      "Ġsauce": 6871,
      "ca": 6872,
      "elcome": 6873,
      "Ġpersonally": 6874,
      "Ġphotograp": 6875,
      "Ġultimately": 6876,
      "iser": 6877,
      "ĠNext": 6878,
      "Ġgay": 6879,
      "Ġurban": 6880,
      "Ġhall": 6881,
      "aints": 6882,
      "Ġshots": 6883,
      "oval": 6884,
      "Ġcarbon": 6885,
      "Ġoperate": 6886,
      "SS": 6887,
      "Ġsight": 6888,
      "ĠSup": 6889,
      "zil": 6890,
      "52": 6891,
      "Ġast": 6892,
      "ghan": 6893,
      "isms": 6894,
      "ĠDivision": 6895,
      "Ġsizes": 6896,
      "Even": 6897,
      "Ġimmediate": 6898,
      "Ġbare": 6899,
      "Ġflood": 6900,
      "ĠMid": 6901,
      "ĠJun": 6902,
      "orne": 6903,
      "ĠSon": 6904,
      "Ġfeaturing": 6905,
      "utch": 6906,
      "anish": 6907,
      "ĠCre": 6908,
      "ĠRest": 6909,
      "Ġinstruct": 6910,
      "ographic": 6911,
      "Ġsolar": 6912,
      "Ġbelieves": 6913,
      "ĠCook": 6914,
      "Ġguitar": 6915,
      "Ġtasks": 6916,
      "Ġconscious": 6917,
      "Ġapproval": 6918,
      "Ġalleged": 6919,
      "Ġhits": 6920,
      "Ġdescribe": 6921,
      "Ġpartnership": 6922,
      "Ġstone": 6923,
      "Ġhell": 6924,
      "ĠPack": 6925,
      "lder": 6926,
      "ĠEgypt": 6927,
      "ĠTherefore": 6928,
      "Ġeveryday": 6929,
      "EST": 6930,
      "ĠRight": 6931,
      "ospit": 6932,
      "View": 6933,
      "ĠGall": 6934,
      "Ġfeelings": 6935,
      "Ġliquid": 6936,
      "urning": 6937,
      "pected": 6938,
      "Ġvend": 6939,
      "Ġaccessible": 6940,
      "Ġtonight": 6941,
      "hem": 6942,
      "adium": 6943,
      "Ġsomewhere": 6944,
      "uality": 6945,
      "Ġobtained": 6946,
      "Ġbrowser": 6947,
      "Ġstreets": 6948,
      "ĠInte": 6949,
      "ppers": 6950,
      "itage": 6951,
      "Ġconfident": 6952,
      "Ġborder": 6953,
      "redit": 6954,
      "ression": 6955,
      "Ġslot": 6956,
      "Thanks": 6957,
      "Ġstatements": 6958,
      "Ġstruggle": 6959,
      "ĠHotel": 6960,
      "Ġsubsequ": 6961,
      "ĠSecretary": 6962,
      "aper": 6963,
      "ĠDC": 6964,
      "Ġhoping": 6965,
      "whel": 6966,
      "Ġerr": 6967,
      "Ġorganized": 6968,
      "ĠDoes": 6969,
      "ĠSite": 6970,
      "Ġsustainable": 6971,
      "mar": 6972,
      "ĠCert": 6973,
      "Ġhasn": 6974,
      "Ġrose": 6975,
      "Ġgolf": 6976,
      "ashed": 6977,
      "Ġlie": 6978,
      "claim": 6979,
      "plete": 6980,
      "oin": 6981,
      "sters": 6982,
      "han": 6983,
      "pes": 6984,
      "pel": 6985,
      "Ġadds": 6986,
      "Ġimprovement": 6987,
      "Ġlikes": 6988,
      "ĠYet": 6989,
      "Ġskill": 6990,
      "weet": 6991,
      "Ġreward": 6992,
      "HA": 6993,
      "Ġpersons": 6994,
      "Ġtrained": 6995,
      "Ġdealing": 6996,
      "Col": 6997,
      "Ġpapers": 6998,
      "ellect": 6999,
      "Ġloans": 7000,
      "Ġlinked": 7001,
      "Ġintegrated": 7002,
      "Ġguidance": 7003,
      "Look": 7004,
      "Ġbanks": 7005,
      "Ġpitch": 7006,
      "ĠWatch": 7007,
      "Ġintent": 7008,
      "Ġthorough": 7009,
      "ogen": 7010,
      "Ġcontemporary": 7011,
      "Ġrepresents": 7012,
      "profit": 7013,
      "Ġanticip": 7014,
      "Ġprotest": 7015,
      "foot": 7016,
      "Ġsufficient": 7017,
      "ĠEll": 7018,
      "Ġappointment": 7019,
      "isters": 7020,
      "cue": 7021,
      "berry": 7022,
      "Ġfinds": 7023,
      "Ġexposure": 7024,
      "Ġsoci": 7025,
      "RS": 7026,
      "Ġproof": 7027,
      "ĠUt": 7028,
      "Ġheav": 7029,
      "During": 7030,
      "Ġlessons": 7031,
      "Ġentreprene": 7032,
      "Ġillness": 7033,
      "Ġargument": 7034,
      "ĠCross": 7035,
      "UL": 7036,
      "ĠCost": 7037,
      "Ġchose": 7038,
      "yers": 7039,
      "orable": 7040,
      "Ġimpressive": 7041,
      "lements": 7042,
      "Ġpromise": 7043,
      "Ġinformed": 7044,
      "Ġcable": 7045,
      "pload": 7046,
      "ĠAndrew": 7047,
      "ĠOS": 7048,
      "Ġanyway": 7049,
      "Ġbowl": 7050,
      "ĠSher": 7051,
      "ĠHard": 7052,
      "ults": 7053,
      "Ġindex": 7054,
      "Ġsuffering": 7055,
      "John": 7056,
      "owntown": 7057,
      "ĠFour": 7058,
      "Ġremained": 7059,
      "Ġtalks": 7060,
      "stein": 7061,
      "Ġacts": 7062,
      "Ġglad": 7063,
      "bles": 7064,
      "grad": 7065,
      "ĠMrs": 7066,
      "Ġestimated": 7067,
      "uine": 7068,
      "asters": 7069,
      "Ġshel": 7070,
      "Ġextent": 7071,
      "Ġscientists": 7072,
      "ĠJewish": 7073,
      "Ġbedroom": 7074,
      "Ġbodies": 7075,
      "ĠPot": 7076,
      "Ġsmile": 7077,
      "Ġauto": 7078,
      "Ġtechnique": 7079,
      "Ġfiled": 7080,
      "Ġtut": 7081,
      "Ġbat": 7082,
      "entle": 7083,
      "Ġnetworks": 7084,
      "Ġclothing": 7085,
      "Ġthread": 7086,
      "Ġagents": 7087,
      "Ġmonitoring": 7088,
      "des": 7089,
      "Ġmic": 7090,
      "ĠLind": 7091,
      "Ġpercentage": 7092,
      "Ġabsor": 7093,
      "Ġinjuries": 7094,
      "etime": 7095,
      "Who": 7096,
      "Ġbasically": 7097,
      "ĠGuide": 7098,
      "76": 7099,
      "Ġpod": 7100,
      "Ġnob": 7101,
      "Ġgrass": 7102,
      "Ġauthent": 7103,
      "oned": 7104,
      "Ġrecording": 7105,
      "American": 7106,
      "ĠBal": 7107,
      "Ġtrick": 7108,
      "Ġ1999": 7109,
      "ĠOil": 7110,
      "ĠAgain": 7111,
      "Ġdining": 7112,
      "rage": 7113,
      "Ġattached": 7114,
      "ĠExecutive": 7115,
      "Ġwet": 7116,
      "ĠHospital": 7117,
      "ĠGames": 7118,
      "Ġprinciples": 7119,
      "Ġexecut": 7120,
      "Ġatmosphere": 7121,
      "Ġtall": 7122,
      "ĠRoman": 7123,
      "made": 7124,
      "ĠHor": 7125,
      "ĠTrust": 7126,
      "Ġelev": 7127,
      "Ġreferred": 7128,
      "stone": 7129,
      "ĠPlace": 7130,
      "Ġexpressed": 7131,
      "star": 7132,
      "izz": 7133,
      "ampion": 7134,
      "ĠPrice": 7135,
      "Ġreligion": 7136,
      "sue": 7137,
      "otton": 7138,
      "obs": 7139,
      "Ġresulting": 7140,
      "Ġ75": 7141,
      "Ġ1990": 7142,
      "case": 7143,
      "ouch": 7144,
      "Ġwriters": 7145,
      "Ġnarrow": 7146,
      "ĠOpt": 7147,
      "Ġ38": 7148,
      "ĠUsing": 7149,
      "Ġpursu": 7150,
      "Ġsearching": 7151,
      "uction": 7152,
      "iana": 7153,
      "Ġreplacement": 7154,
      "oup": 7155,
      "Ġcreates": 7156,
      "ixture": 7157,
      "ĠCB": 7158,
      "Ġinterpret": 7159,
      "Ġwatched": 7160,
      "rieved": 7161,
      "Ġhat": 7162,
      "quir": 7163,
      "ĠKn": 7164,
      "Ġdefault": 7165,
      "Ġrear": 7166,
      "ĠSouthern": 7167,
      "Ġaside": 7168,
      "asts": 7169,
      "obby": 7170,
      "Ġmand": 7171,
      "racy": 7172,
      "Ġexplains": 7173,
      "Ġnearby": 7174,
      "Ġcerem": 7175,
      "ĠHollywood": 7176,
      "umps": 7177,
      "Â°": 7178,
      "Ġcompr": 7179,
      "onym": 7180,
      "Ġreader": 7181,
      "Ġfacilit": 7182,
      "Ġdomain": 7183,
      "Ġpounds": 7184,
      "Ġbottle": 7185,
      "Ġordered": 7186,
      "ba": 7187,
      "stood": 7188,
      "Ġtech": 7189,
      "Ġamend": 7190,
      "Ġtwenty": 7191,
      "Ġentr": 7192,
      "Ġdiam": 7193,
      "Ġforum": 7194,
      "adel": 7195,
      "Ġdirected": 7196,
      "lyn": 7197,
      "Ġconstant": 7198,
      "Ġprecise": 7199,
      "bel": 7200,
      "acc": 7201,
      "Ġobviously": 7202,
      "Ġflash": 7203,
      "celer": 7204,
      "ĠMult": 7205,
      "Ġneither": 7206,
      "Ġlifestyle": 7207,
      "Ġbroadcast": 7208,
      ")||": 7209,
      "Ġpit": 7210,
      "ĠTri": 7211,
      "Ġimproving": 7212,
      "arters": 7213,
      "rition": 7214,
      "Ġsoph": 7215,
      "Ġsomewhat": 7216,
      "Ġforever": 7217,
      "ventional": 7218,
      "PM": 7219,
      "aning": 7220,
      "Ġmuseum": 7221,
      "ĠCH": 7222,
      "Ġconvenient": 7223,
      "aylor": 7224,
      "Ġheads": 7225,
      "ĠEnvironment": 7226,
      "ĠIrish": 7227,
      "ĠBox": 7228,
      "Ġdiscipl": 7229,
      "Ġvulner": 7230,
      "Ġnoise": 7231,
      "Ġmoves": 7232,
      "iac": 7233,
      "ĠCra": 7234,
      "raid": 7235,
      "Ġphr": 7236,
      "Ġcircuit": 7237,
      "rich": 7238,
      "nell": 7239,
      "Ġcuts": 7240,
      "Ġpleasure": 7241,
      "Ġrepeated": 7242,
      "level": 7243,
      "Ġversions": 7244,
      "sell": 7245,
      "Ġweren": 7246,
      "ĠSoft": 7247,
      "300": 7248,
      "ĠTru": 7249,
      "ĠFurther": 7250,
      "ĠVan": 7251,
      "Ġcontribute": 7252,
      "Ġlighting": 7253,
      "Ġcategories": 7254,
      "Ġsupplies": 7255,
      "Ġsurprising": 7256,
      "Ġmurder": 7257,
      "eting": 7258,
      "ĠHim": 7259,
      "ĠStat": 7260,
      "AB": 7261,
      "Ġlad": 7262,
      "ĠPDF": 7263,
      "ĠFriend": 7264,
      "athy": 7265,
      "Ġevol": 7266,
      "ĠHelp": 7267,
      "Ġscholars": 7268,
      "Ġagric": 7269,
      "Ġfo": 7270,
      "ĠEs": 7271,
      "Ġacting": 7272,
      "Ġtrends": 7273,
      "Ġvirus": 7274,
      "ĠIreland": 7275,
      "arry": 7276,
      "Ġinterface": 7277,
      "Ġoccurred": 7278,
      "abetes": 7279,
      "ument": 7280,
      "zing": 7281,
      "Ġje": 7282,
      "ĠPoint": 7283,
      "Ġweekly": 7284,
      "Ġsignal": 7285,
      "htt": 7286,
      "Ġsoil": 7287,
      "Ġoutstanding": 7288,
      "Ġresistance": 7289,
      "aska": 7290,
      "ele": 7291,
      "ĠRyan": 7292,
      "Ġpleased": 7293,
      "including": 7294,
      "Ġwest": 7295,
      "==": 7296,
      "Ġjun": 7297,
      "Ġblind": 7298,
      "Ġproposal": 7299,
      "Ġweapons": 7300,
      "Ġreputation": 7301,
      "ifies": 7302,
      "Ġstrike": 7303,
      "ĠKim": 7304,
      "roke": 7305,
      "Ġgear": 7306,
      "CR": 7307,
      "rog": 7308,
      "ureau": 7309,
      "Ġapartment": 7310,
      "Ġcrucial": 7311,
      "Tube": 7312,
      "ĠField": 7313,
      "Ġspin": 7314,
      "enger": 7315,
      "ĠBlog": 7316,
      "Ġcolumn": 7317,
      "Ġlargely": 7318,
      "Ġamounts": 7319,
      "Ġconsumption": 7320,
      "asant": 7321,
      "ĠMach": 7322,
      "ĠBon": 7323,
      "ĠArea": 7324,
      "Ġspaces": 7325,
      "ĠSystems": 7326,
      "Ġincreasingly": 7327,
      "Ġfalse": 7328,
      "ulating": 7329,
      "Ġrig": 7330,
      "Ġterrit": 7331,
      "ĠLeg": 7332,
      "Ġapparently": 7333,
      "Ġduty": 7334,
      "ounded": 7335,
      "Ġprofessor": 7336,
      "Ġcelebrate": 7337,
      "Ġconflict": 7338,
      "ĠRon": 7339,
      "ĠLiber": 7340,
      "ogether": 7341,
      "UP": 7342,
      "ĠDVD": 7343,
      "Ġbridge": 7344,
      "anna": 7345,
      "Ġmoist": 7346,
      "Med": 7347,
      "inter": 7348,
      "nda": 7349,
      "Ġpin": 7350,
      "ĠExpl": 7351,
      "ĠBell": 7352,
      "arks": 7353,
      "Ġfasc": 7354,
      "ura": 7355,
      "Ġ)": 7356,
      "Ġoverwhel": 7357,
      "ĠInstagram": 7358,
      "Ġdrinking": 7359,
      "ĠAssist": 7360,
      "ĠCatholic": 7361,
      "Bu": 7362,
      "iot": 7363,
      "Ġphen": 7364,
      "ĠResp": 7365,
      "oir": 7366,
      "Bec": 7367,
      "ĠRay": 7368,
      "abeth": 7369,
      "Ġrental": 7370,
      "ĠZeal": 7371,
      "ĠMountain": 7372,
      "ĠHarr": 7373,
      "Ġ150": 7374,
      "Ġclar": 7375,
      "Ġreserved": 7376,
      "live": 7377,
      "ĠRoom": 7378,
      "ĠRoyal": 7379,
      "Ġbrill": 7380,
      "Ġbroke": 7381,
      "ĠSpanish": 7382,
      "MP": 7383,
      "ĠSearch": 7384,
      "ĠKent": 7385,
      "Ġdefinition": 7386,
      "ĠStudies": 7387,
      "ĠDownload": 7388,
      "Pr": 7389,
      "Ġinner": 7390,
      "Ġalive": 7391,
      "Ġentit": 7392,
      "Ġinspiration": 7393,
      "then": 7394,
      "olit": 7395,
      "Ġsheet": 7396,
      "Ġluck": 7397,
      "ĠLow": 7398,
      "Ġwidely": 7399,
      "Ġstyles": 7400,
      "teen": 7401,
      "Ġplot": 7402,
      "Ġclaimed": 7403,
      "idays": 7404,
      "2013": 7405,
      "Check": 7406,
      "Ġdivid": 7407,
      "Ġexperiment": 7408,
      "Ġstrange": 7409,
      "Ġsaved": 7410,
      "Ġmembership": 7411,
      "ĠApplic": 7412,
      "cipal": 7413,
      "dy": 7414,
      "Ġease": 7415,
      "ĠHon": 7416,
      "CD": 7417,
      "worth": 7418,
      "Ġ37": 7419,
      "ffered": 7420,
      "Ġlandscape": 7421,
      "Ġpermanent": 7422,
      "plate": 7423,
      "Ġmanual": 7424,
      "Ġ33": 7425,
      "Ġcopyright": 7426,
      "Ġknock": 7427,
      "ĠSn": 7428,
      "Ġperforming": 7429,
      "Ġplatforms": 7430,
      "Ġtab": 7431,
      "ĠJac": 7432,
      "Ġmainly": 7433,
      "Ġsending": 7434,
      "Ġfaculty": 7435,
      "TER": 7436,
      "front": 7437,
      "Sm": 7438,
      "Ġunus": 7439,
      "Ġtracks": 7440,
      "Ġachieved": 7441,
      "EP": 7442,
      "ĠFar": 7443,
      "ĠRam": 7444,
      "Ġmagic": 7445,
      "Ġimplementation": 7446,
      "Ġchoosing": 7447,
      "Ġpotentially": 7448,
      "ĠPacific": 7449,
      "Ġsensitive": 7450,
      "ĠSometimes": 7451,
      "Ġroles": 7452,
      "Thank": 7453,
      "ĠCOVID": 7454,
      "Ġprimarily": 7455,
      "Ġpace": 7456,
      "Ġexceed": 7457,
      "ificate": 7458,
      "Ġdesigner": 7459,
      "ĠFox": 7460,
      "Ġcoal": 7461,
      "ĠLtd": 7462,
      "Ġ1998": 7463,
      "Ġexistence": 7464,
      "zona": 7465,
      "Ġcapture": 7466,
      "Ġcontrols": 7467,
      "Ġmanaging": 7468,
      "Ġobserved": 7469,
      "Ġfavourite": 7470,
      "iments": 7471,
      "Ġexec": 7472,
      "inos": 7473,
      "ĠInf": 7474,
      "Ġfaces": 7475,
      "ĠKey": 7476,
      "Ġera": 7477,
      "inson": 7478,
      "ĠGeorgia": 7479,
      "%.": 7480,
      "urb": 7481,
      "Ġregions": 7482,
      "liament": 7483,
      "ĠZealand": 7484,
      "Pre": 7485,
      "cific": 7486,
      "dated": 7487,
      "Ġpra": 7488,
      "ĠDate": 7489,
      "Ġrecy": 7490,
      "Ġpossess": 7491,
      "making": 7492,
      "ĠChair": 7493,
      "Ġinvited": 7494,
      "ikes": 7495,
      "Ġcollaboration": 7496,
      "ilst": 7497,
      "Ġflour": 7498,
      "bridge": 7499,
      "ĠHa": 7500,
      "BI": 7501,
      "ĠRun": 7502,
      "essel": 7503,
      "Ġinvolves": 7504,
      "Ġlucky": 7505,
      "Ġreaction": 7506,
      "ĠHope": 7507,
      "Ġdivision": 7508,
      "54": 7509,
      "ĠFinancial": 7510,
      "Ġexception": 7511,
      "Ġstrategic": 7512,
      "swe": 7513,
      "ĠSanta": 7514,
      "amental": 7515,
      "xic": 7516,
      "ĠAdministration": 7517,
      "tes": 7518,
      "Ġwithd": 7519,
      "Ġmarked": 7520,
      "Ġfounded": 7521,
      "ĠThus": 7522,
      "Ġflexible": 7523,
      "ĠRose": 7524,
      "tense": 7525,
      "Ġtreatments": 7526,
      "ennis": 7527,
      "ĠSupreme": 7528,
      "page": 7529,
      "erate": 7530,
      "ĠDid": 7531,
      "Ġrequests": 7532,
      "Ġbathroom": 7533,
      "Ġaccomplish": 7534,
      "Jan": 7535,
      "Ġvacation": 7536,
      "ðŁ": 7537,
      "Ġsees": 7538,
      "annels": 7539,
      "Ġgenuine": 7540,
      "Ġgender": 7541,
      "Ġstood": 7542,
      "Ð¾": 7543,
      "Ġdust": 7544,
      "Ġproven": 7545,
      "ĠDisney": 7546,
      "Ġultimate": 7547,
      "Ġvent": 7548,
      "Ġzone": 7549,
      "ĠPolicy": 7550,
      "Ġinstrument": 7551,
      "Ġafraid": 7552,
      "CO": 7553,
      "Ġsavings": 7554,
      "Have": 7555,
      "urrent": 7556,
      "anned": 7557,
      "ĠJersey": 7558,
      "Ġaggress": 7559,
      "Ġlapt": 7560,
      "Ġpriority": 7561,
      "ĠRo": 7562,
      "Ġpermission": 7563,
      "Ġhopes": 7564,
      "Ġkm": 7565,
      "53": 7566,
      "uous": 7567,
      "Ġtip": 7568,
      "Ġfinger": 7569,
      "Ġformal": 7570,
      "ystem": 7571,
      "Ġlies": 7572,
      "ĠDaily": 7573,
      "Ġintelligence": 7574,
      "inent": 7575,
      "anwhile": 7576,
      "ĠCa": 7577,
      "ĠVideo": 7578,
      "Ġcontinuing": 7579,
      "Ġeast": 7580,
      "ĠSky": 7581,
      "urable": 7582,
      "itionally": 7583,
      "oken": 7584,
      "ĠConnect": 7585,
      "Ġlimits": 7586,
      "holders": 7587,
      "Gu": 7588,
      "iger": 7589,
      "Ġstuck": 7590,
      "Ġfindings": 7591,
      "Ġqualified": 7592,
      "bar": 7593,
      "Ġhole": 7594,
      "Ġcomponent": 7595,
      "Ġfifth": 7596,
      "Ġeligible": 7597,
      "rated": 7598,
      "osm": 7599,
      "Ġoffices": 7600,
      "Ġflavor": 7601,
      "Ġbirds": 7602,
      "Ġhire": 7603,
      "Ġgifts": 7604,
      "Ġmanufacturer": 7605,
      "EA": 7606,
      "Ġnic": 7607,
      "TV": 7608,
      "Ġbab": 7609,
      "Ġpink": 7610,
      "Ġmile": 7611,
      "Ġhidden": 7612,
      "ava": 7613,
      "ĠWebs": 7614,
      "rency": 7615,
      "lessly": 7616,
      "Ġtissue": 7617,
      "alty": 7618,
      "iano": 7619,
      "Ġvisited": 7620,
      "Ġillegal": 7621,
      "icted": 7622,
      "Ġopposite": 7623,
      "adow": 7624,
      "tocol": 7625,
      "Ġrelative": 7626,
      "EG": 7627,
      "Pub": 7628,
      "Ġwins": 7629,
      "ĠUk": 7630,
      "Ġengaged": 7631,
      "Ġpowder": 7632,
      "ĠFed": 7633,
      "Ġstronger": 7634,
      "ters": 7635,
      "uing": 7636,
      "Ġbatt": 7637,
      "Ġunw": 7638,
      "ĠDisc": 7639,
      "Ġdoctors": 7640,
      "Ġ400": 7641,
      "ĠAsh": 7642,
      "800": 7643,
      "ĠNote": 7644,
      "Ġtransp": 7645,
      "iversary": 7646,
      "Ġstake": 7647,
      "raction": 7648,
      "acle": 7649,
      "ĠThree": 7650,
      "Ġspokes": 7651,
      "Ġdevelopers": 7652,
      "Car": 7653,
      "Note": 7654,
      "ĠKenn": 7655,
      "Ġeverywhere": 7656,
      "aze": 7657,
      "Ġpassword": 7658,
      "onto": 7659,
      "Ġwash": 7660,
      "Ġcrack": 7661,
      "Ġoppon": 7662,
      "Ġdrawing": 7663,
      "ĠProfessor": 7664,
      "Ġfestival": 7665,
      "Ġdad": 7666,
      "Ġrating": 7667,
      "Ġsubmitted": 7668,
      "this": 7669,
      "ĠLabor": 7670,
      "Ġdriven": 7671,
      "Ġsaving": 7672,
      "Ġcapabilities": 7673,
      "lled": 7674,
      "olar": 7675,
      "ione": 7676,
      "ppy": 7677,
      "Ġhistoric": 7678,
      "iece": 7679,
      "ĠPolit": 7680,
      "Ġattended": 7681,
      "Ġtum": 7682,
      "Ġjew": 7683,
      "anny": 7684,
      "ĠBritain": 7685,
      "ĠGovern": 7686,
      "ĠTax": 7687,
      "Ġgenerate": 7688,
      "ingers": 7689,
      "Ġmm": 7690,
      "uter": 7691,
      "Ġvictim": 7692,
      "ĠMarketing": 7693,
      "Book": 7694,
      "Ġmeals": 7695,
      "Ġguidelines": 7696,
      "ologist": 7697,
      "Ġassault": 7698,
      "Ġrecommendations": 7699,
      "Ġdiseases": 7700,
      "inte": 7701,
      "ĠCO": 7702,
      "Ġincredibly": 7703,
      "Reg": 7704,
      "ĠBrazil": 7705,
      "Ġwra": 7706,
      "ĠViet": 7707,
      "Ġshouldn": 7708,
      "rite": 7709,
      "oured": 7710,
      "ership": 7711,
      "Rep": 7712,
      "Ġintroduction": 7713,
      "Ġevaluation": 7714,
      "onna": 7715,
      "ati": 7716,
      "Ġpill": 7717,
      "Ġeleg": 7718,
      "Ġinvolving": 7719,
      "Ġfitness": 7720,
      "Ġliterature": 7721,
      "Ġevolution": 7722,
      "Ġheaded": 7723,
      "Ġads": 7724,
      "izabeth": 7725,
      "ĠPhys": 7726,
      "Ġintense": 7727,
      "etry": 7728,
      "iform": 7729,
      "ĠVill": 7730,
      "cover": 7731,
      "Ġreplaced": 7732,
      "Ġempty": 7733,
      "Ġexpenses": 7734,
      "Ġeggs": 7735,
      "Ġchances": 7736,
      "Ġclock": 7737,
      "Ġcommonly": 7738,
      "run": 7739,
      "ĠHun": 7740,
      "Ġdebut": 7741,
      "Ġdreams": 7742,
      "79": 7743,
      "Ġseed": 7744,
      "ĠNever": 7745,
      "Ġanymore": 7746,
      "ĠSupp": 7747,
      "bre": 7748,
      "ĠTer": 7749,
      "Ġnewly": 7750,
      "Ġprogramme": 7751,
      "vard": 7752,
      "Ġextract": 7753,
      "Ġstructures": 7754,
      "print": 7755,
      "Ġforecast": 7756,
      "Ġmortgage": 7757,
      "Ġfirms": 7758,
      "aping": 7759,
      "''": 7760,
      "Ġtournament": 7761,
      "Ġcontrolled": 7762,
      "Ġmemories": 7763,
      "ĠAdam": 7764,
      "sen": 7765,
      "Ġpublication": 7766,
      "Ġconsideration": 7767,
      "Ġ34": 7768,
      "Ġcausing": 7769,
      "Ġluxury": 7770,
      "formance": 7771,
      "Ġflag": 7772,
      "ĠHeart": 7773,
      "Ġdesired": 7774,
      "ĠSus": 7775,
      "ĠBudd": 7776,
      "âĢ¦.": 7777,
      "erts": 7778,
      "Ġvoters": 7779,
      "Ġbomb": 7780,
      "Ġdeposit": 7781,
      "Ġoutcome": 7782,
      "isdom": 7783,
      "ĠFather": 7784,
      "Two": 7785,
      "Ġpipe": 7786,
      "ĠBall": 7787,
      "Press": 7788,
      "Ġloving": 7789,
      "ĠMill": 7790,
      "cia": 7791,
      "bits": 7792,
      "Ġawards": 7793,
      "Ġfalling": 7794,
      "requ": 7795,
      "Ġseasons": 7796,
      "inking": 7797,
      "ESS": 7798,
      "Ġanxiety": 7799,
      "Ġenforcement": 7800,
      "Fi": 7801,
      "ĠStan": 7802,
      "Ġaccord": 7803,
      "ĠConf": 7804,
      "phy": 7805,
      "Ġdrawn": 7806,
      "Ġdepends": 7807,
      "pir": 7808,
      "Ġoven": 7809,
      "ormal": 7810,
      "Ġhosting": 7811,
      "Ġrecover": 7812,
      "Ġliterally": 7813,
      "pack": 7814,
      "Ġ;": 7815,
      "ĠSat": 7816,
      "Ġleather": 7817,
      "Ġcarrying": 7818,
      "Ġrising": 7819,
      "ĠJr": 7820,
      "Ġphotography": 7821,
      "ĠForce": 7822,
      "Ġcute": 7823,
      "Ġyield": 7824,
      "season": 7825,
      "Ġ2022": 7826,
      "ĠStudents": 7827,
      "ĠTurn": 7828,
      "amps": 7829,
      "Ġelectrical": 7830,
      "Ġbull": 7831,
      "Ġexplan": 7832,
      "Ġreduction": 7833,
      "Ġfunctional": 7834,
      "RI": 7835,
      "Ġnom": 7836,
      "Ġarrested": 7837,
      "lers": 7838,
      "ĠKar": 7839,
      "Ġbell": 7840,
      "Ġthinks": 7841,
      "Ġdecent": 7842,
      "Ġsolve": 7843,
      "ĠWorks": 7844,
      "Ġregardless": 7845,
      "Ġbags": 7846,
      "stery": 7847,
      "etary": 7848,
      "Ġsharp": 7849,
      "izer": 7850,
      "athan": 7851,
      "ĠTraining": 7852,
      "ĠSH": 7853,
      "ĠCond": 7854,
      "letter": 7855,
      "Ġpreferred": 7856,
      "ĠPriv": 7857,
      "ĠDar": 7858,
      "ocracy": 7859,
      "Ġbreaking": 7860,
      "ĠCountry": 7861,
      "missions": 7862,
      "ĠThough": 7863,
      "ĠWhich": 7864,
      "Ġcookies": 7865,
      "folio": 7866,
      "CL": 7867,
      "Ġstead": 7868,
      "Ġsplit": 7869,
      "Ġhospit": 7870,
      "imize": 7871,
      "ĠPop": 7872,
      "thew": 7873,
      "Ġreducing": 7874,
      "Ġalongside": 7875,
      "Ġsubjects": 7876,
      "Ġtact": 7877,
      "Ġreject": 7878,
      "izza": 7879,
      "Before": 7880,
      "Ġmerch": 7881,
      "ĠRa": 7882,
      "ĠLED": 7883,
      "Ġmood": 7884,
      "ceived": 7885,
      "Ġchest": 7886,
      "Ġcouncil": 7887,
      "Because": 7888,
      "68": 7889,
      "Ġgene": 7890,
      "ĠYouTube": 7891,
      "Ġavailability": 7892,
      "was": 7893,
      "Ġtor": 7894,
      "Ġinspe": 7895,
      "Ġdeeply": 7896,
      "ĠCorporation": 7897,
      "wart": 7898,
      "Ġlaid": 7899,
      "Ġtransportation": 7900,
      "ĠOk": 7901,
      "Ġintellect": 7902,
      "Ġharder": 7903,
      "Ġlawyer": 7904,
      "ĠAccount": 7905,
      "Ġstrict": 7906,
      "ĠEss": 7907,
      "ogs": 7908,
      "Ġvisible": 7909,
      "Ġposting": 7910,
      "ĠBuilding": 7911,
      "ĠClin": 7912,
      "inois": 7913,
      "Ġthousand": 7914,
      "Ġdynamic": 7915,
      "adelph": 7916,
      "Ġbact": 7917,
      "Ġbunch": 7918,
      "Ġundert": 7919,
      "ĠSea": 7920,
      "Follow": 7921,
      "leep": 7922,
      "ĠPract": 7923,
      "64": 7924,
      "uct": 7925,
      "Ġpp": 7926,
      "anted": 7927,
      "Ġru": 7928,
      "Ġbaseball": 7929,
      "Ġprinted": 7930,
      "ĠSilver": 7931,
      "ĠCab": 7932,
      "ĠRod": 7933,
      "Ġcontained": 7934,
      "Ġending": 7935,
      "iate": 7936,
      "itis": 7937,
      "Ġreact": 7938,
      "Ġexposed": 7939,
      "erring": 7940,
      "Ġrecognition": 7941,
      "Ġhel": 7942,
      "ĠClinton": 7943,
      "ATE": 7944,
      "ĠTravel": 7945,
      "inity": 7946,
      "Ġbars": 7947,
      "ĠHou": 7948,
      "ĠFord": 7949,
      "Ġparam": 7950,
      "Ġinfection": 7951,
      "ĠAvenue": 7952,
      "ĠStore": 7953,
      "Ġinteract": 7954,
      "ĠArizona": 7955,
      "Ġquote": 7956,
      "Ġ39": 7957,
      "ounter": 7958,
      "Ġgenerated": 7959,
      "Ġequival": 7960,
      "Ġsuffered": 7961,
      "Ġalt": 7962,
      "Ġpepper": 7963,
      "Ġexpansion": 7964,
      "Ġwrites": 7965,
      "ĠTal": 7966,
      "Ġbehalf": 7967,
      "Ġforgot": 7968,
      "ĠPS": 7969,
      "Ġobst": 7970,
      "51": 7971,
      "Ġsynt": 7972,
      "Ġcomparison": 7973,
      "ĠHoly": 7974,
      "ĠTech": 7975,
      "Ġchannels": 7976,
      "owers": 7977,
      "Ġarmy": 7978,
      "coin": 7979,
      "Ġengagement": 7980,
      "Ġelected": 7981,
      "Ġpreparation": 7982,
      "ĠDun": 7983,
      "ĠQuest": 7984,
      "ĠDemocratic": 7985,
      "Like": 7986,
      "ifer": 7987,
      "Ġshops": 7988,
      "Ġwhenever": 7989,
      "Ġproducing": 7990,
      "Ġtitles": 7991,
      "Ġsupplement": 7992,
      "ambling": 7993,
      "friendly": 7994,
      "Ġmerely": 7995,
      "ĠJoseph": 7996,
      "icious": 7997,
      "ĠBroad": 7998,
      "ĠLearn": 7999,
      "ĠDrive": 8000,
      "aine": 8001,
      "ĠJenn": 8002,
      "Ã¢": 8003,
      "ĠBa": 8004,
      "ĠBru": 8005,
      "Ġassume": 8006,
      "Ġcareful": 8007,
      "Ġfilter": 8008,
      "Ġconnections": 8009,
      "ĠSmall": 8010,
      "boy": 8011,
      "Ġunderstood": 8012,
      "Ġmarks": 8013,
      "Ġsamples": 8014,
      "Ġmatches": 8015,
      "Ġenterprise": 8016,
      "ĠFred": 8017,
      "quality": 8018,
      "bury": 8019,
      "Ġisol": 8020,
      "Ġputs": 8021,
      "bell": 8022,
      "Part": 8023,
      "].": 8024,
      "Ġscenes": 8025,
      "yes": 8026,
      "Ġlau": 8027,
      "Ġeverybody": 8028,
      "Ġextension": 8029,
      "Oct": 8030,
      "Ġlatter": 8031,
      "ĠOp": 8032,
      "Ġmanagers": 8033,
      "iami": 8034,
      "Ġnaturally": 8035,
      "Ġconvin": 8036,
      "days": 8037,
      "epend": 8038,
      "issions": 8039,
      "2012": 8040,
      "Ġencouraged": 8041,
      "ĠGreek": 8042,
      "being": 8043,
      "ĠMA": 8044,
      "Ġcharm": 8045,
      "Ġcoc": 8046,
      "isted": 8047,
      "Ġresume": 8048,
      "Ġfaced": 8049,
      "Ġwaters": 8050,
      "ĠRadio": 8051,
      "irts": 8052,
      "ĠFact": 8053,
      "Ġhandling": 8054,
      "Ġcolleagues": 8055,
      "ĠAction": 8056,
      "ĠWales": 8057,
      "Ġfishing": 8058,
      "Ġgotten": 8059,
      "Ġscheme": 8060,
      "ĠRetrieved": 8061,
      "aron": 8062,
      "allas": 8063,
      "ĠUlt": 8064,
      "Ġfundamental": 8065,
      "Ġdestination": 8066,
      "igation": 8067,
      "Ġvessel": 8068,
      "Ġspots": 8069,
      "Ġconsists": 8070,
      "Ġarrive": 8071,
      "Ġsuddenly": 8072,
      "His": 8073,
      "Ġmac": 8074,
      "ĠMobile": 8075,
      "atell": 8076,
      "Ġkilling": 8077,
      "adelphia": 8078,
      "Ġvice": 8079,
      "ruption": 8080,
      "Ġdollar": 8081,
      "war": 8082,
      "Ġtie": 8083,
      "Ġbutt": 8084,
      "ĠSpace": 8085,
      "Ġescape": 8086,
      "69": 8087,
      "Ġbills": 8088,
      "Ġpul": 8089,
      "Ġprohib": 8090,
      "ĠWi": 8091,
      "Ġconsequences": 8092,
      "ĠCR": 8093,
      "Ġrefund": 8094,
      "ĠMedicine": 8095,
      "Ġinitiative": 8096,
      "________": 8097,
      "isa": 8098,
      "ĠTerm": 8099,
      "Ġcompare": 8100,
      "Ġinstant": 8101,
      "Ġindustries": 8102,
      "ĠAwards": 8103,
      "ocated": 8104,
      "Ġobjective": 8105,
      "Ġframework": 8106,
      "ĠDemocrats": 8107,
      "Ġzero": 8108,
      "ĠTaylor": 8109,
      "ĠPen": 8110,
      "Ġseats": 8111,
      "alysis": 8112,
      "Ġphones": 8113,
      "Ġ65": 8114,
      "Ġjoining": 8115,
      "Ġhyper": 8116,
      "urities": 8117,
      "Ġfinance": 8118,
      "Ġdemands": 8119,
      "ĠHenry": 8120,
      "Ġsmoke": 8121,
      "ĠShould": 8122,
      ")|": 8123,
      "Ġlens": 8124,
      "ĠSafety": 8125,
      "Ġboss": 8126,
      "ĠSav": 8127,
      "ĠWH": 8128,
      "Ġcompat": 8129,
      "Ġrecon": 8130,
      "chester": 8131,
      "Ġstunning": 8132,
      "ila": 8133,
      "Ġcommunicate": 8134,
      "Ġinjured": 8135,
      "Ġlogo": 8136,
      "Ġopposition": 8137,
      "Ġcam": 8138,
      "ĠSuch": 8139,
      "ĠPo": 8140,
      "ĠNon": 8141,
      "ensus": 8142,
      "Ġremoval": 8143,
      "Ġsuperior": 8144,
      "makers": 8145,
      "ĠPak": 8146,
      "Ġblank": 8147,
      "Ġpersonality": 8148,
      "Ġ1996": 8149,
      "Ġsacr": 8150,
      "orous": 8151,
      "Ġgentle": 8152,
      "riers": 8153,
      "Ġtraveling": 8154,
      "ĠPersonal": 8155,
      "Back": 8156,
      "Ġinsight": 8157,
      "car": 8158,
      "through": 8159,
      "Ġindicate": 8160,
      "Ġmaintaining": 8161,
      "tail": 8162,
      "usal": 8163,
      "Ġque": 8164,
      "Ġstored": 8165,
      "Ġ55": 8166,
      "oked": 8167,
      "ĠBrad": 8168,
      "Ġcontrovers": 8169,
      "ĠNorthern": 8170,
      "Ġlists": 8171,
      "Ġcriteria": 8172,
      "ashes": 8173,
      "ĠSS": 8174,
      "Ġoccurs": 8175,
      "fall": 8176,
      "ĠSpain": 8177,
      "85": 8178,
      "Ġgod": 8179,
      "Ġadequ": 8180,
      "heast": 8181,
      "ĠDub": 8182,
      "Ġpocket": 8183,
      "Ġairport": 8184,
      "Ġtomat": 8185,
      "oted": 8186,
      "Ġraw": 8187,
      "iki": 8188,
      "sts": 8189,
      "Ġattitude": 8190,
      "ĠCarl": 8191,
      "Ġfib": 8192,
      "Ġplane": 8193,
      "bration": 8194,
      "ĠDO": 8195,
      "erving": 8196,
      "Ġcovering": 8197,
      "Ġcomputers": 8198,
      "ĠTreat": 8199,
      "Ġhung": 8200,
      "ĠCON": 8201,
      "ĠDaniel": 8202,
      "ĠRoll": 8203,
      "Ġpresents": 8204,
      "Ġessentially": 8205,
      "Ġpubl": 8206,
      "Whe": 8207,
      "mal": 8208,
      "rection": 8209,
      "ĠAp": 8210,
      "Ġdispos": 8211,
      "Ġcenters": 8212,
      "AND": 8213,
      "Ġsoldiers": 8214,
      "dis": 8215,
      "stra": 8216,
      "ĠStill": 8217,
      "Ġshoulder": 8218,
      "Ġmistake": 8219,
      "Ġtone": 8220,
      "Ġracing": 8221,
      "Ġ1997": 8222,
      "Ġspeaker": 8223,
      "Ġgiant": 8224,
      "Ġuncom": 8225,
      "Ġdrag": 8226,
      "aters": 8227,
      "Ġlect": 8228,
      "ĠFun": 8229,
      "uma": 8230,
      "ĠStory": 8231,
      "ĠIII": 8232,
      "ds": 8233,
      "ĠFall": 8234,
      "89": 8235,
      "Ġwave": 8236,
      "Ġconcerning": 8237,
      "Ġfraud": 8238,
      "enth": 8239,
      "Ġlady": 8240,
      "ĠEnt": 8241,
      "ĠRequ": 8242,
      "books": 8243,
      "Ġunex": 8244,
      "ĠCru": 8245,
      "Ġarchitecture": 8246,
      "Ġbench": 8247,
      "ĠCN": 8248,
      "Ġnewspaper": 8249,
      "Ġdepression": 8250,
      "Ġtape": 8251,
      "eness": 8252,
      "Ġloud": 8253,
      "ĠOrder": 8254,
      "da": 8255,
      "Ġriding": 8256,
      "ervations": 8257,
      "ĠAsian": 8258,
      "Ġsections": 8259,
      "Ġscan": 8260,
      "eling": 8261,
      "icking": 8262,
      "haust": 8263,
      "Step": 8264,
      "400": 8265,
      "ĠGM": 8266,
      "roller": 8267,
      "ĠHarry": 8268,
      "Ġbasketball": 8269,
      "Ġacceler": 8270,
      "ilipp": 8271,
      "Will": 8272,
      "wan": 8273,
      "Ġyard": 8274,
      "ĠDam": 8275,
      "Ġconcrete": 8276,
      "cular": 8277,
      "Ġboxes": 8278,
      "Ġattempts": 8279,
      "iti": 8280,
      "Ġma": 8281,
      "ĠFREE": 8282,
      "Ġ($": 8283,
      "Ġrice": 8284,
      "ĠTry": 8285,
      "Ġtrave": 8286,
      "Ġrequested": 8287,
      "ĠType": 8288,
      "OO": 8289,
      "VER": 8290,
      "words": 8291,
      "Ġwarning": 8292,
      "Ġmixture": 8293,
      "Ġstom": 8294,
      "Ġcalendar": 8295,
      "Ġawarded": 8296,
      "cut": 8297,
      "ĠTable": 8298,
      "umm": 8299,
      "Ġcrash": 8300,
      "Ġsentence": 8301,
      "Ġblocks": 8302,
      "Ġattractive": 8303,
      "Aug": 8304,
      "ington": 8305,
      "ller": 8306,
      "Ġheaven": 8307,
      "Ġresidential": 8308,
      "ials": 8309,
      "Ġequally": 8310,
      "Ġtracking": 8311,
      "Ðµ": 8312,
      "Ġsought": 8313,
      "Ġasks": 8314,
      "Ġlegend": 8315,
      "Ġmoral": 8316,
      "ĠKorea": 8317,
      "Tra": 8318,
      "ĠâĢĻ": 8319,
      "Ġinch": 8320,
      "Ġupload": 8321,
      "ĠLy": 8322,
      "ĠLatin": 8323,
      "ĠEric": 8324,
      "ĠKat": 8325,
      "Ġ49": 8326,
      "Ġdefensive": 8327,
      "Â·": 8328,
      "acher": 8329,
      "Ġtransaction": 8330,
      "Ġstrongly": 8331,
      "Ġborrow": 8332,
      "Ġcolon": 8333,
      "Ġstayed": 8334,
      "Donald": 8335,
      "ĠDiego": 8336,
      "UD": 8337,
      "Ġlets": 8338,
      "Ġvolunteers": 8339,
      "olis": 8340,
      "Ġcomplicated": 8341,
      "ĠHold": 8342,
      "Ġshower": 8343,
      "Ġapplicable": 8344,
      "Ġerrors": 8345,
      "GE": 8346,
      "ĠLew": 8347,
      "ĠAgency": 8348,
      "Ġgranted": 8349,
      "nce": 8350,
      "Ġunknown": 8351,
      "Ġstaying": 8352,
      "67": 8353,
      "ĠLLC": 8354,
      "ĠNick": 8355,
      "bro": 8356,
      "ped": 8357,
      "ĠSir": 8358,
      "elry": 8359,
      "Ġmeets": 8360,
      "Ġretirement": 8361,
      "ĠAnth": 8362,
      "Ġunusual": 8363,
      "Ġchildhood": 8364,
      "Ġclosing": 8365,
      "Ġchecking": 8366,
      "Ġparticipation": 8367,
      "ĠPerhaps": 8368,
      "clusive": 8369,
      "Ġentitled": 8370,
      "Ġloyal": 8371,
      "Ġrural": 8372,
      "Ġadopted": 8373,
      "ĠFoot": 8374,
      "Ġcompliance": 8375,
      "zed": 8376,
      "Ġgap": 8377,
      "ilty": 8378,
      "Ġinitially": 8379,
      "Ġentering": 8380,
      "Ġlegit": 8381,
      "ĠKevin": 8382,
      "bow": 8383,
      "Ġusage": 8384,
      "ĠAfghan": 8385,
      "Ġpowers": 8386,
      "Ġtired": 8387,
      "ortion": 8388,
      "Ġactor": 8389,
      "Ġfrustr": 8390,
      "ĠPrime": 8391,
      "Ã¼": 8392,
      "Ġtied": 8393,
      "Ġgreatly": 8394,
      "Ġopens": 8395,
      "pending": 8396,
      "Ġ1980": 8397,
      "Ġopinions": 8398,
      "Ġjuice": 8399,
      "tics": 8400,
      "Ġchronic": 8401,
      "Ġpersonnel": 8402,
      "Ġmedication": 8403,
      "Ġpointed": 8404,
      "ĠArm": 8405,
      "ĠÂ»": 8406,
      "ĠEngineering": 8407,
      "Sec": 8408,
      "swered": 8409,
      "ĠMiller": 8410,
      "Lear": 8411,
      "icide": 8412,
      "Ġsuffer": 8413,
      "nesota": 8414,
      "DP": 8415,
      "EX": 8416,
      "Ġfalls": 8417,
      "Ġpig": 8418,
      "ulum": 8419,
      "Ġadmit": 8420,
      "ĠIllinois": 8421,
      "Wor": 8422,
      "Ġplain": 8423,
      "EF": 8424,
      "ira": 8425,
      "ĠBrian": 8426,
      "Ġperformances": 8427,
      "ylvan": 8428,
      "Best": 8429,
      "vas": 8430,
      "Ġwake": 8431,
      "omething": 8432,
      "iking": 8433,
      "Ġstruck": 8434,
      "burgh": 8435,
      "Ġham": 8436,
      "Ġgaming": 8437,
      "Ġcertified": 8438,
      "ulpt": 8439,
      "Ġimper": 8440,
      "Ġreturning": 8441,
      "Ġcharacteristics": 8442,
      "Ġske": 8443,
      "Ġdiversity": 8444,
      "Ġnights": 8445,
      "ILL": 8446,
      "Find": 8447,
      "ĠSales": 8448,
      "ĠHas": 8449,
      "Ġapproaches": 8450,
      "Ġsuggestions": 8451,
      "Ġassociation": 8452,
      "ĠKingdom": 8453,
      "Ġelectricity": 8454,
      "cm": 8455,
      "ritten": 8456,
      "Ġrely": 8457,
      "ĠOrig": 8458,
      "Ġblend": 8459,
      "riter": 8460,
      "Ġrepresented": 8461,
      "Ġrespectively": 8462,
      "Ġcasual": 8463,
      "Ġpand": 8464,
      "ĠCivil": 8465,
      "ĠPsych": 8466,
      "orgeous": 8467,
      "ĠDream": 8468,
      "aret": 8469,
      "bered": 8470,
      "AF": 8471,
      "Ġflying": 8472,
      "umer": 8473,
      "Ġspark": 8474,
      "Ġheading": 8475,
      "'.": 8476,
      "ĠAge": 8477,
      "ador": 8478,
      "ĠMah": 8479,
      "ĠEastern": 8480,
      "erman": 8481,
      "ĠArticle": 8482,
      "Ġdisplayed": 8483,
      "Ġsorry": 8484,
      "Ġgained": 8485,
      "Ġpreparing": 8486,
      "ĠDavis": 8487,
      "ĠSenior": 8488,
      "Ġrapidly": 8489,
      "gov": 8490,
      "Ġvibr": 8491,
      "Ġassistant": 8492,
      "Ġmanufacturers": 8493,
      "BM": 8494,
      "anes": 8495,
      "ĠIM": 8496,
      "eties": 8497,
      "ĠDark": 8498,
      "intage": 8499,
      "Ġrequirement": 8500,
      "âĤ¬": 8501,
      "Ġrecipes": 8502,
      "ito": 8503,
      "Ġadj": 8504,
      "Ġuniverse": 8505,
      "%,": 8506,
      "Aut": 8507,
      "ĠPut": 8508,
      "ĠPrin": 8509,
      "Ġaddresses": 8510,
      "hour": 8511,
      "Ġdental": 8512,
      "Ġconcert": 8513,
      "Ġsmoking": 8514,
      "Ġreaching": 8515,
      "aza": 8516,
      "high": 8517,
      "ĠSection": 8518,
      "Good": 8519,
      "Ġbone": 8520,
      "Ġstable": 8521,
      "Ġjur": 8522,
      "Ġensuring": 8523,
      "Each": 8524,
      "ĠEth": 8525,
      "Ġoffensive": 8526,
      "ĠElizabeth": 8527,
      "Ġfarmers": 8528,
      "ĠFilm": 8529,
      "Ġtill": 8530,
      "ĠProm": 8531,
      "Ġaircraft": 8532,
      "ĠÂ©": 8533,
      "ĠSummer": 8534,
      "Ġdrama": 8535,
      "ĠCurrent": 8536,
      "iour": 8537,
      "Ġhip": 8538,
      "Ġaband": 8539,
      "Ġaccessories": 8540,
      "UM": 8541,
      "Ġ42": 8542,
      "Ġ1995": 8543,
      "ipt": 8544,
      "Ġmob": 8545,
      "Ġcomprom": 8546,
      "upid": 8547,
      "Ġphilosophy": 8548,
      "ĠHouston": 8549,
      "ĠDNA": 8550,
      "ĠNFL": 8551,
      "Ġsingles": 8552,
      "Ġcontributions": 8553,
      "ĠRepublicans": 8554,
      "child": 8555,
      "ateful": 8556,
      "Ġenables": 8557,
      "Rem": 8558,
      "Ġocean": 8559,
      "iler": 8560,
      "Ġconventional": 8561,
      "ĠOx": 8562,
      "ĠCredit": 8563,
      "ĠGarden": 8564,
      "ĠEsc": 8565,
      "Ġdose": 8566,
      "Inst": 8567,
      "Ġpurchasing": 8568,
      "Ġhaz": 8569,
      "cker": 8570,
      "ERE": 8571,
      "Ġclassroom": 8572,
      "Art": 8573,
      "Ġwireless": 8574,
      "phones": 8575,
      "Ġprize": 8576,
      "stract": 8577,
      "andy": 8578,
      "ĠRef": 8579,
      "Ġraising": 8580,
      "ourse": 8581,
      "Ġloose": 8582,
      "Ġenjoying": 8583,
      "rer": 8584,
      "Ġbaking": 8585,
      "Ġles": 8586,
      "step": 8587,
      "Ġlesson": 8588,
      "nders": 8589,
      "Ġpacked": 8590,
      ",âĢĻ": 8591,
      "Ġstations": 8592,
      "Ġpoker": 8593,
      "ĠUnfortunately": 8594,
      "ĠSeattle": 8595,
      "Ġinstruction": 8596,
      "Ġcoat": 8597,
      "Ġprogramming": 8598,
      "Sim": 8599,
      "Ġexists": 8600,
      "Ġcoup": 8601,
      "ĠColumbia": 8602,
      "Ġnations": 8603,
      "eters": 8604,
      "ĠEmer": 8605,
      "Ġfewer": 8606,
      "hire": 8607,
      "iag": 8608,
      "Ġsouthern": 8609,
      "Ġokay": 8610,
      "ĠBern": 8611,
      "Ġanswered": 8612,
      "Ġdeeper": 8613,
      "Ġtemporary": 8614,
      "ĠGi": 8615,
      "Ġflower": 8616,
      "Ġuncertain": 8617,
      "ylvania": 8618,
      "igen": 8619,
      "Ġarr": 8620,
      "Ġofficially": 8621,
      "who": 8622,
      "Ġconcepts": 8623,
      "ĠMagazine": 8624,
      "ĠWebsite": 8625,
      "stal": 8626,
      "cend": 8627,
      "aka": 8628,
      "Ġcalm": 8629,
      "ĠQueen": 8630,
      "SE": 8631,
      "Ġupgrade": 8632,
      "Ġwise": 8633,
      "Ġconclusion": 8634,
      "Ġremem": 8635,
      "People": 8636,
      "Ã³": 8637,
      "ĠUr": 8638,
      "ogy": 8639,
      "ĠMember": 8640,
      "Ġorange": 8641,
      "month": 8642,
      "ĠCapital": 8643,
      "Ġstir": 8644,
      "Ġcombat": 8645,
      "Ġportfolio": 8646,
      "Ġdanger": 8647,
      "ught": 8648,
      "HL": 8649,
      "ĠName": 8650,
      "inating": 8651,
      "Ġstudied": 8652,
      "ART": 8653,
      "regon": 8654,
      "rets": 8655,
      "Ġlip": 8656,
      "Ġstages": 8657,
      "ĠMir": 8658,
      "Ġminister": 8659,
      "Ġadvent": 8660,
      "Ġexhibition": 8661,
      "ĠHaving": 8662,
      "iah": 8663,
      "ĠStone": 8664,
      "Ġhadn": 8665,
      "Ġminimal": 8666,
      "Ġfranch": 8667,
      "Ġhosted": 8668,
      "imer": 8669,
      "Ġcrypt": 8670,
      "Ġsubstantial": 8671,
      "irus": 8672,
      "ĠMD": 8673,
      "ĠMiami": 8674,
      "Ġworried": 8675,
      "ordan": 8676,
      "Ġimmigr": 8677,
      "Ġequivalent": 8678,
      "cor": 8679,
      "Ġvisits": 8680,
      "Ġceremony": 8681,
      "wich": 8682,
      "Ġunem": 8683,
      "anguage": 8684,
      "Ġcontracts": 8685,
      "ĠNation": 8686,
      "oding": 8687,
      "http": 8688,
      "ji": 8689,
      "Ġinterviews": 8690,
      "Ġcameras": 8691,
      "Ġpregnancy": 8692,
      "63": 8693,
      "Ġequipped": 8694,
      "Ġheavily": 8695,
      "fa": 8696,
      "je": 8697,
      "pany": 8698,
      "Ġpushed": 8699,
      "Ġbrilliant": 8700,
      "Feb": 8701,
      "Ġlin": 8702,
      "Ġlisting": 8703,
      "Ġunion": 8704,
      "Ġindicated": 8705,
      "ĠCommon": 8706,
      "ĠLearning": 8707,
      "alo": 8708,
      "iffe": 8709,
      "ĠLocal": 8710,
      "acon": 8711,
      "Ġcontaining": 8712,
      "Ġinteraction": 8713,
      "Ġdispl": 8714,
      "87": 8715,
      "vol": 8716,
      "Ġtub": 8717,
      "Ġdowntown": 8718,
      "site": 8719,
      "lections": 8720,
      "char": 8721,
      "ĠGro": 8722,
      "Ġcourts": 8723,
      "ĠNO": 8724,
      "ronics": 8725,
      "ali": 8726,
      "Ġblow": 8727,
      "kel": 8728,
      "tery": 8729,
      "Ġhighlights": 8730,
      "Ġfounder": 8731,
      "ĠExpress": 8732,
      "Ġsubsid": 8733,
      "Ġworkshop": 8734,
      "Ġorient": 8735,
      "ockey": 8736,
      "Ġphenomen": 8737,
      "ĠTool": 8738,
      "Ġadmitted": 8739,
      "Ġarray": 8740,
      "ja": 8741,
      "oric": 8742,
      "Ġlung": 8743,
      "Ġdeploy": 8744,
      "Ġassigned": 8745,
      "ĠLas": 8746,
      "Ġapplying": 8747,
      "itutional": 8748,
      "Ġrestrictions": 8749,
      "ĠPu": 8750,
      "Ġmuscles": 8751,
      "Ġjudgment": 8752,
      "Ġlifetime": 8753,
      "ilton": 8754,
      "ĠEst": 8755,
      "osa": 8756,
      "Ġemployer": 8757,
      "Ġrepresentative": 8758,
      "ĠTele": 8759,
      "Ġmold": 8760,
      "Ġinteractive": 8761,
      "Ġdiabetes": 8762,
      "ĠWithout": 8763,
      "Ġratio": 8764,
      "Ġswimming": 8765,
      "hemat": 8766,
      "odge": 8767,
      "agan": 8768,
      "Ġoutcomes": 8769,
      "Ġsomebody": 8770,
      "iley": 8771,
      "Ġly": 8772,
      "pled": 8773,
      "Ġdamaged": 8774,
      "Ġcompensation": 8775,
      "Ġauthentic": 8776,
      "Comm": 8777,
      "iary": 8778,
      "Ġ~": 8779,
      "ĠCase": 8780,
      "Ġweird": 8781,
      "ccer": 8782,
      "ĠSteel": 8783,
      "Ġdecline": 8784,
      "Ġther": 8785,
      "urse": 8786,
      "gel": 8787,
      "onder": 8788,
      "Ġfocusing": 8789,
      "RC": 8790,
      "ĠIce": 8791,
      "ckets": 8792,
      "Ġmyth": 8793,
      "ĠProper": 8794,
      "Ġroads": 8795,
      "Ġenemy": 8796,
      "ĠCapt": 8797,
      "ĠBit": 8798,
      "ĠMembers": 8799,
      "sex": 8800,
      "jection": 8801,
      "Ġbass": 8802,
      "Ġaccused": 8803,
      "liers": 8804,
      "Ġshirt": 8805,
      "Ġproved": 8806,
      "Ġconsent": 8807,
      "Ġgrace": 8808,
      "Ġscores": 8809,
      "Ġresponses": 8810,
      "owed": 8811,
      "Ġbuff": 8812,
      "ko": 8813,
      "sylvania": 8814,
      "ĠChall": 8815,
      "ĠPhiladelphia": 8816,
      "Ġrarely": 8817,
      "after": 8818,
      "Ġintegration": 8819,
      "ĠLat": 8820,
      "cludes": 8821,
      "Ġlosses": 8822,
      "Ġaccuracy": 8823,
      "Ġvolunteer": 8824,
      "Ġvegetables": 8825,
      "ĠBase": 8826,
      "Ġdeck": 8827,
      "Ġkit": 8828,
      "ĠAllen": 8829,
      "Ġ1994": 8830,
      "ĠSwed": 8831,
      "ĠBand": 8832,
      "pson": 8833,
      "Ġfru": 8834,
      "intend": 8835,
      "organ": 8836,
      "ĠWas": 8837,
      "Ġexhaust": 8838,
      "eping": 8839,
      "ĠMinnesota": 8840,
      "ĠBuy": 8841,
      "Ġstruggling": 8842,
      "Ġgraphics": 8843,
      "uana": 8844,
      "zes": 8845,
      "ĠTR": 8846,
      "uties": 8847,
      "Ġwanting": 8848,
      "roduction": 8849,
      "Ġimprovements": 8850,
      "athered": 8851,
      "icket": 8852,
      "Ġintention": 8853,
      "df": 8854,
      "Ġcul": 8855,
      "ĠCP": 8856,
      "ĠNatural": 8857,
      "Ġsurve": 8858,
      "Ġminds": 8859,
      "Ġgovernments": 8860,
      "Fl": 8861,
      "aver": 8862,
      "imp": 8863,
      "achus": 8864,
      "ĠProcess": 8865,
      "Ġexplos": 8866,
      "Ġcontribution": 8867,
      "Ġenthusi": 8868,
      "Ġopposed": 8869,
      "Ġlift": 8870,
      "Ġsevent": 8871,
      "Ġrum": 8872,
      "ĠWilson": 8873,
      "Co": 8874,
      "aud": 8875,
      "Take": 8876,
      "viously": 8877,
      "Ð°": 8878,
      "Ġsed": 8879,
      "Ġemotions": 8880,
      "Ob": 8881,
      "Ġhealing": 8882,
      "osc": 8883,
      "arly": 8884,
      "Ġemails": 8885,
      "Ġelections": 8886,
      "ĠBarb": 8887,
      "Ġspeakers": 8888,
      "looking": 8889,
      "wear": 8890,
      "Ġmole": 8891,
      "Ġouts": 8892,
      "orses": 8893,
      "Ġscoring": 8894,
      "Ġprovision": 8895,
      "ĠChampionship": 8896,
      "Ġinsert": 8897,
      "Ġtradem": 8898,
      "gor": 8899,
      "Ġinfect": 8900,
      "Ġsomehow": 8901,
      "Ġdeaths": 8902,
      "Ġlaptop": 8903,
      "Ġbold": 8904,
      "cribed": 8905,
      "Ġtemperatures": 8906,
      "ĠNic": 8907,
      "clude": 8908,
      "ĠGuard": 8909,
      "ĠiPad": 8910,
      "Ġcm": 8911,
      "ĠOak": 8912,
      "ĠKh": 8913,
      "ĠPur": 8914,
      "ĠDallas": 8915,
      "opher": 8916,
      "Ġreveal": 8917,
      "Ġsurvival": 8918,
      "ĠForest": 8919,
      "Ġdivided": 8920,
      "RL": 8921,
      "Ġneut": 8922,
      "ĠOK": 8923,
      "iscal": 8924,
      "othe": 8925,
      "ĠInsurance": 8926,
      "power": 8927,
      "charge": 8928,
      "raine": 8929,
      "Ġproport": 8930,
      "ĠUSB": 8931,
      "Ġsinger": 8932,
      "iscons": 8933,
      "Ġpregnant": 8934,
      "GA": 8935,
      "ĠMs": 8936,
      "Ġ44": 8937,
      "Stud": 8938,
      "Ġsurvive": 8939,
      "Ġtroops": 8940,
      "Ġhide": 8941,
      "Ġhearts": 8942,
      "Ġmg": 8943,
      "ĠPA": 8944,
      "ĠBeing": 8945,
      "isconsin": 8946,
      "Ġdesper": 8947,
      "Ġwhilst": 8948,
      "ifting": 8949,
      "Ġattach": 8950,
      "2011": 8951,
      "Ġterrible": 8952,
      "ĠMoon": 8953,
      "ĠNAS": 8954,
      "apore": 8955,
      "Ġorganis": 8956,
      "ucks": 8957,
      "Ġviewing": 8958,
      "brid": 8959,
      "Ġwondering": 8960,
      "ĠBrook": 8961,
      "Ġstomach": 8962,
      "HT": 8963,
      "sis": 8964,
      "ĠSem": 8965,
      "Ġdrinks": 8966,
      "ĠVegas": 8967,
      "Ġgorgeous": 8968,
      "ĠHart": 8969,
      "Ġstring": 8970,
      "ĠPhilipp": 8971,
      "Ġlanguages": 8972,
      "Ġ!": 8973,
      "Ġchampion": 8974,
      "ĠVery": 8975,
      "ĠSelect": 8976,
      "Ġcircle": 8977,
      "Ġtoler": 8978,
      "ĠIde": 8979,
      "Ġconvey": 8980,
      "ĠLine": 8981,
      "Ġoffense": 8982,
      "fers": 8983,
      "ĠRen": 8984,
      "ĠOl": 8985,
      "Ġscreens": 8986,
      "Ġtransactions": 8987,
      "Ġtrem": 8988,
      "ĠStock": 8989,
      "ĠBad": 8990,
      "Ġguilty": 8991,
      "Ġprivile": 8992,
      "rus": 8993,
      "Ġwisdom": 8994,
      "Ġmad": 8995,
      "aval": 8996,
      "ĠSmart": 8997,
      "Ġdescribes": 8998,
      "Ġcups": 8999,
      "ĠToronto": 9000,
      "Ġpilot": 9001,
      "Cons": 9002,
      "ĠBang": 9003,
      "ĠEvent": 9004,
      "ĠProfessional": 9005,
      "ked": 9006,
      "ĠImm": 9007,
      "Ġtelephone": 9008,
      "rape": 9009,
      "ĠRub": 9010,
      "encing": 9011,
      "Ġoral": 9012,
      "Ġengaging": 9013,
      "Ġconstit": 9014,
      "sect": 9015,
      "Ġsegment": 9016,
      "ĠLA": 9017,
      "ĠBridge": 9018,
      "Ġemerging": 9019,
      "Ġconservative": 9020,
      "onic": 9021,
      "Ġbid": 9022,
      "Ġtrim": 9023,
      "ĠBeaut": 9024,
      "unes": 9025,
      "ĠKansas": 9026,
      "Ġalign": 9027,
      "ffective": 9028,
      "Ġmeasured": 9029,
      "ĠJosh": 9030,
      "Ġdishes": 9031,
      "Ġinvestments": 9032,
      "Ġbreaks": 9033,
      "Ġimmune": 9034,
      "Ġpandemic": 9035,
      "ĠSC": 9036,
      "Ġsigning": 9037,
      "Ġcombine": 9038,
      "Ġdivor": 9039,
      "ĠBarn": 9040,
      "Ġanniversary": 9041,
      "Ġcomplaint": 9042,
      "Ġacquis": 9043,
      "ĠSarah": 9044,
      "ĠCamer": 9045,
      "ĠJay": 9046,
      "Ġski": 9047,
      "ĠTrade": 9048,
      "Ġclubs": 9049,
      "hop": 9050,
      "rary": 9051,
      "xx": 9052,
      "Ġuniform": 9053,
      "Ġgallery": 9054,
      "Ġ]": 9055,
      "Ġfest": 9056,
      "ĠFa": 9057,
      "Ġprime": 9058,
      "ĠDean": 9059,
      "Ġalter": 9060,
      "Ġspecialist": 9061,
      "Ġattending": 9062,
      "mates": 9063,
      "Ġtherap": 9064,
      "Ġfits": 9065,
      "Ġexport": 9066,
      "Ġdisaster": 9067,
      "Ġdistributed": 9068,
      "Ġtargets": 9069,
      "Ġburning": 9070,
      "ugs": 9071,
      "Ġmaintained": 9072,
      "Ġexceptional": 9073,
      "Ġintellectual": 9074,
      "',": 9075,
      "abil": 9076,
      "Ġtargeted": 9077,
      "mo": 9078,
      "âĢ³": 9079,
      "Ġcomedy": 9080,
      "Ġgate": 9081,
      "ĠThink": 9082,
      "Ġcharity": 9083,
      "theless": 9084,
      "ĠFinally": 9085,
      "Ġownership": 9086,
      "ĠMother": 9087,
      "mann": 9088,
      "Ġbrothers": 9089,
      "ĠMuslim": 9090,
      "61": 9091,
      "Ġrelation": 9092,
      "Ġintroduce": 9093,
      "iro": 9094,
      "Ġfiction": 9095,
      "Ġestimate": 9096,
      "Ġcotton": 9097,
      "ĠCL": 9098,
      "ĠCro": 9099,
      "Ġfocuses": 9100,
      "Ġsummary": 9101,
      "ouri": 9102,
      "Ġgym": 9103,
      "etts": 9104,
      "ĠDave": 9105,
      "pers": 9106,
      "edge": 9107,
      "anth": 9108,
      "ductive": 9109,
      "Ġmassage": 9110,
      "SC": 9111,
      "Ġ120": 9112,
      "Ġresident": 9113,
      "Ġfactory": 9114,
      "fections": 9115,
      "Ġsignature": 9116,
      "Ġwithdraw": 9117,
      "vals": 9118,
      "Ġtort": 9119,
      "ĠHT": 9120,
      "Ġchecked": 9121,
      "world": 9122,
      "Ġmask": 9123,
      "Ġconvert": 9124,
      "agraph": 9125,
      "ennes": 9126,
      "dney": 9127,
      "Ġspray": 9128,
      "ĠChapter": 9129,
      "Ġshell": 9130,
      "Ġemployers": 9131,
      "600": 9132,
      "rat": 9133,
      "inst": 9134,
      "ĠNumber": 9135,
      "apse": 9136,
      "angers": 9137,
      "Ġvotes": 9138,
      "Ġtap": 9139,
      "Ġsod": 9140,
      "ĠPalest": 9141,
      "Ġsatisfaction": 9142,
      "Ġcopies": 9143,
      "ĠðŁ": 9144,
      "Ġbes": 9145,
      "ĠReading": 9146,
      "Ġacknowled": 9147,
      "Ġdual": 9148,
      "style": 9149,
      "Ġsetup": 9150,
      "Ġtrips": 9151,
      "ĠDespite": 9152,
      "Ġconsistently": 9153,
      "ĠPennsylvania": 9154,
      "Ġaccordance": 9155,
      "Dis": 9156,
      "Â©": 9157,
      "ractions": 9158,
      "Ġemployed": 9159,
      "Ġpricing": 9160,
      "Ġimplemented": 9161,
      "Ġcontainer": 9162,
      "Ġhitting": 9163,
      "ardens": 9164,
      "Ġscope": 9165,
      "Ġcompletion": 9166,
      "Ġstudying": 9167,
      "ĠStudent": 9168,
      "Day": 9169,
      "Mark": 9170,
      "Ġletting": 9171,
      "Ġcelebration": 9172,
      "Ġunexpected": 9173,
      "97": 9174,
      "ĠRog": 9175,
      "Ġpackaging": 9176,
      "ALL": 9177,
      "ĠOregon": 9178,
      "Ġproducer": 9179,
      "Ġstatistics": 9180,
      "Ġprinting": 9181,
      "Ġpermit": 9182,
      "Ġregulation": 9183,
      "offs": 9184,
      "Ġhoriz": 9185,
      "Ġcorrectly": 9186,
      "Ġsatisfied": 9187,
      "Ġflexibility": 9188,
      "Ġvert": 9189,
      "ressed": 9190,
      "rowse": 9191,
      "ĠProdu": 9192,
      "ĠStephen": 9193,
      "Ġspir": 9194,
      "Ġrecre": 9195,
      "Ġpursue": 9196,
      "Ġperiods": 9197,
      "ĠScotland": 9198,
      "AV": 9199,
      "Under": 9200,
      "inth": 9201,
      "omed": 9202,
      "Ġgig": 9203,
      "ustration": 9204,
      "Ġcompete": 9205,
      "Ġprayer": 9206,
      "Ġfur": 9207,
      "rix": 9208,
      "ĠEX": 9209,
      "Ġtransmission": 9210,
      "Ġmovements": 9211,
      "ĠEdition": 9212,
      "Ġdeclared": 9213,
      "Ġneighb": 9214,
      "Ġpromoting": 9215,
      "break": 9216,
      "Ġdil": 9217,
      "Ġstability": 9218,
      "Ġ41": 9219,
      "Ġantib": 9220,
      "Ġfilling": 9221,
      "roit": 9222,
      "ĠGreg": 9223,
      "inks": 9224,
      "Ġlawsu": 9225,
      "Ġlayers": 9226,
      "ĠRomney": 9227,
      "ĠGolden": 9228,
      "ĠProtection": 9229,
      "Ġlicensed": 9230,
      "ĠTalk": 9231,
      "ĠDri": 9232,
      "Ġformula": 9233,
      "ijuana": 9234,
      "Ġcha": 9235,
      "ounce": 9236,
      "screen": 9237,
      "Ġmistakes": 9238,
      "Ġphotographs": 9239,
      "urg": 9240,
      "ĠCut": 9241,
      "ĠCOM": 9242,
      "Ġkiss": 9243,
      "hesis": 9244,
      "ĠNeed": 9245,
      "omatic": 9246,
      "ĠAC": 9247,
      "ĠFR": 9248,
      "Ġpackages": 9249,
      "Ġseeds": 9250,
      "Ġinnoc": 9251,
      "Ġdemonstrate": 9252,
      "Ġcodes": 9253,
      "isd": 9254,
      "ĠMess": 9255,
      "Ġsecondary": 9256,
      "Ġarrival": 9257,
      "Ã¶": 9258,
      "otes": 9259,
      "terior": 9260,
      "awa": 9261,
      "Ġbuyers": 9262,
      "Ġacquired": 9263,
      "Ġnose": 9264,
      "agers": 9265,
      "Ġresort": 9266,
      "Ġguaranteed": 9267,
      "Ġkil": 9268,
      "Ġpasses": 9269,
[...]
